/**
  ******************************************************************************
  * @file    network_data_params.c
  * @author  AST Embedded Analytics Research Platform
  * @date    Thu Oct 17 13:41:10 2024
  * @brief   AI Tool Automatic Code Generator for Embedded NN computing
  ******************************************************************************
  * Copyright (c) 2024 STMicroelectronics.
  * All rights reserved.
  *
  * This software is licensed under terms that can be found in the LICENSE file
  * in the root directory of this software component.
  * If no LICENSE file comes with this software, it is provided AS-IS.
  ******************************************************************************
  */

#include "network_data_params.h"


/**  Activations Section  ****************************************************/
ai_handle g_network_activations_table[1 + 2] = {
  AI_HANDLE_PTR(AI_MAGIC_MARKER),
  AI_HANDLE_PTR(NULL),
  AI_HANDLE_PTR(AI_MAGIC_MARKER),
};




/**  Weights Section  ********************************************************/
AI_ALIGNED(32)
const ai_u64 s_network_weights_array_u64[38574] = {
  0xf7d5b3910000007fU, 0xf7d5b3917f5d3b19U, 0xf7d5b3917f5d3b19U, 0xf7d5b3917f5d3b19U,
  0xf7d5b3917f5d3b19U, 0xf7d5b3917f5d3b19U, 0xf7d5b3917f5d3b19U, 0xf7d5b3917f5d3b19U,
  0x6e2ae6a27f5d3b19U, 0x6e2ae6a26e2ae6a2U, 0x4cc44cc46e2ae6a2U, 0x9191919191919191U,
  0xb3b3b3b3b3b3b3b3U, 0xd5d5d5d5d5d5d5d5U, 0xf7f7f7f7f7f7f7f7U, 0x1919191919191919U,
  0x3b3b3b3b3b3b3b3bU, 0x5d5d5d5d5d5d5d5dU, 0x7f7f7f7f7f7f7f7fU, 0xe6e6e6e6a2a2a2a2U,
  0x6e6e6e6e2a2a2a2aU, 0xc0c0c0c04c4cc4c4U, 0xc0c0c0c0c0c0c0c0U, 0xc0c0c0c0c0c0c0c0U,
  0xc0c0c0c0c0c0c0c0U, 0xc0c0c0c0c0c0c0c0U, 0xc0c0c0c0c0c0c0c0U, 0xc0c0c0c0c0c0c0c0U,
  0xc0c0c0c0c0c0c0c0U, 0xffffffffc0c0c0c0U, 0xffffffffffffffffU, 0x7f7f7f7fffffffffU,
  0xc0c0c0c0c0c0c0c0U, 0xc0c0c0c0c0c0c0c0U, 0xc0c0c0c0c0c0c0c0U, 0xc0c0c0c0c0c0c0c0U,
  0xc0c0c0c0c0c0c0c0U, 0xc0c0c0c0c0c0c0c0U, 0xc0c0c0c0c0c0c0c0U, 0xc0c0c0c0c0c0c0c0U,
  0xffffffffffffffffU, 0xffffffffffffffffU, 0xc0c0c0c07f7f7f7fU, 0xc0c0c0c0c0c0c0c0U,
  0xc0c0c0c0c0c0c0c0U, 0xc0c0c0c0c0c0c0c0U, 0xc0c0c0c0c0c0c0c0U, 0xc0c0c0c0c0c0c0c0U,
  0xc0c0c0c0c0c0c0c0U, 0xc0c0c0c0c0c0c0c0U, 0xffffffffc0c0c0c0U, 0xffffffffffffffffU,
  0x7f7f7f7fffffffffU, 0xc0c0c0c0c0c0c0c0U, 0xc0c0c0c0c0c0c0c0U, 0xc0c0c0c0c0c0c0c0U,
  0xc0c0c0c0c0c0c0c0U, 0xc0c0c0c0c0c0c0c0U, 0xc0c0c0c0c0c0c0c0U, 0xc0c0c0c0c0c0c0c0U,
  0xc0c0c0c0c0c0c0c0U, 0xffffffffffffffffU, 0xffffffffffffffffU, 0xe2e9dcee7f7f7f7fU,
  0xbf9dc040a10faecU, 0x80e0d18000d03ceU, 0x10052733ff0e02fbU, 0xfd07ea0b0be5efffU,
  0x13e82216df080fffU, 0xfe0803ededf80916U, 0x811f4121e05f600U, 0x7ef0814fdf80505U,
  0xf7f6110cf0ff00ffU, 0xfc5f36dce9ffebf5U, 0xe94b0115e5f72524U, 0xd10daf8e2bb34d7U,
  0x35f18113d5dc04f6U, 0xf406ecf608e8f303U, 0x6020b03f90705eeU, 0x30703fc07080709U,
  0xef0006fae6090601U, 0x16fffdfd06f0fc03U, 0xf1f60709f50ff9f3U, 0xaf30cf91cf4ee23U,
  0xeb0b13040913f210U, 0x70a010606e80cfdU, 0xbff04f208fce9U, 0x32191e30182940fbU,
  0x1009f30e22f6112dU, 0xd9d4c8d9ce0911e8U, 0xf2fd3dad3d6U, 0xdbf000017d3U,
  0xfffffa4a000011f1U, 0xfffffb5700000caaU, 0x2070819fffff768U, 0xc5e9ee2816f42018U,
  0xbe9f50e0bfcd914U, 0x330c1ae00af92414U, 0x2bf40ef1f20ceecbU, 0x5c0b1df1d200bddbU,
  0xf12bf7fef602eefcU, 0x8cdfe305fe022f07U, 0xde0006eaf8031104U, 0xb70df6ec04031f0fU,
  0x2dfbe5c9fa1b0cf1U, 0x14070b2ee9041f22U, 0xc620f5ffecf7d100U, 0x170fefd3e6111defU,
  0x1aed1520de071c0dU, 0xcf18f828db03d3f7U, 0x161cf8d8f40c1ce6U, 0x20f32e11d9fe2904U,
  0xf4050a01edfdc7ebU, 0xf1081a0503f407e9U, 0xf40c200402fa0be2U, 0xfcfd0ffcfd101bdbU,
  0xfa0400f60702fbfbU, 0x1fbfff003020d02U, 0xfe4f100ff111a05U, 0x11f5d8f1fdf70501U,
  0x23d3d8f8ffe60a16U, 0x42f00712f4fa0914U, 0x5c1a1ff2dded09dfU, 0x41fb0217f4ec20e9U,
  0x810ef81f09ec0efbU, 0x99f9040105fdb4edU, 0x95eb0112150af7ffU, 0x3ff904d80e07c51dU,
  0x5101fff5e4051816U, 0xf4f7e5f5e0012014U, 0x26f6f7ed0f1c1804U, 0xd04081dfd0031f9U,
  0xdde5fefbf800dbffU, 0x35e8d1ed0f16ff0fU, 0xff091214f9ef480dU, 0xbd0308f305fccbfdU,
  0x30eff3e5f916e909U, 0xb0c2815c5e2351eU, 0xde1c030e07f5dde5U, 0xe61ee3e41801f7e2U,
  0xfd07a4e405f82f1cU, 0xf5f0ff0307e83317U, 0x1404f3e806011b03U, 0x801fde7fe0c0018U,
  0x16fbfde5fe15f403U, 0xf4083328fa18fffeU, 0xe70a531d1703d8fdU, 0xef20251a0518bfe8U,
  0x5fcf6f31a00d2f6U, 0xfdfdf0fbfe040c13U, 0xfcfaf3ed0502fa0dU, 0xfff5f80007fd11U,
  0x1f5f3f4fd02090cU, 0xfd00fdebff02fb0aU, 0x3fff4f2f707fd07U, 0xf9faf9f1fafd16ffU,
  0xf90ff804fc0103ffU, 0xfff7fc0207000f03U, 0xe5f117fe0addd50dU, 0xcedf4dbeeffd70fU,
  0xfa112617fa0f370aU, 0xef031c0800f8e2f3U, 0x20c9fcaf721e80cU, 0xfd163e19ff0a392fU,
  0xea131a1404f4dad8U, 0x130ba8dafe1aed04U, 0x60f4f93d22U, 0x327fffffdb7U,
  0xa4fffffd73U, 0x9c80000037bU, 0x51b000000045aU, 0x9fa0e0ae1e90ad5U,
  0xe6f0de4a0717d905U, 0xf8c707eb0e04ed13U, 0xf381fd0c02062ee8U, 0x30f0efcb021cc1f2U,
  0xfe0bcfe30906f00aU, 0x3cd0bfdfa1d24f2U, 0x41508051ad70308U, 0xfad00c05031f06fbU,
  0xfe09baf7ff0ad9feU, 0xfff31b04d41209c3U, 0xf8f901f70cf8fd20U, 0xf903f9fd200ffe01U,
  0x2230200f729e706U, 0xc0f816ca21c4fef4U, 0x4fc0c05e60bU, 0xfffffd6b00000199U,
  0x6c6fffffe20U, 0xffffff4100000058U, 0xfffffe210000045cU, 0x51900000675U,
  0x1aeffffff49U, 0x3dafffffe10U, 0x20502f900000493U, 0x9edfdf70cf7ffU,
  0xf2f1f6e6f609fa07U, 0xfc09ef22f205f2fcU, 0xb136052f09112803U, 0x1603001c17e51ff7U,
  0xfffaedeb050524f4U, 0xfafbecc909fd13f0U, 0xfaf9fadc14f6b215U, 0xf9ff14f3050bf803U,
  0xf5110ef5ffeff40eU, 0xbf7ff1802fb04edU, 0xdf8f008fa021c0cU, 0xf50ff707eb05f5efU,
  0x11f1f229fdf00fdfU, 0xf70317e4ebf0fffeU, 0xf21d15ea0f08fa02U, 0x1e30b0203ed0fecU,
  0xef1105e0fdf1ff07U, 0xf908fb2a17f70705U, 0xfef310f0000827fbU, 0xde09e7310ae9eeecU,
  0x41e4bf4b10fe2d19U, 0x4ee4081f00b3beaU, 0x1d14fb08ff15b6fcU, 0xd60a07d0f70505e8U,
  0xfd03040af408e0beU, 0xf802f314f8f52507U, 0xf507f72c10fe2ffaU, 0xf6192cccfe000c0bU,
  0x13f2e9fd18ed10cbU, 0xe210ee06eafee4faU, 0x4131ed90309c940U, 0xfbfa020f06d402edU,
  0x1dec012c0d10fdfdU, 0xf80922e9f118daf1U, 0x2f30200f6da1ceeU, 0xdebea1d0a000b09U,
  0xfe30b01e9f7f10eU, 0xf912eef6f7eedd17U, 0xec0d0c2ffc2301f3U, 0xe72e0cdf05f11af2U,
  0xfdfb0ad50a0400f5U, 0xd311162efa0ae406U, 0x5090af6ffd30d08U, 0xfaf907f9fdedf1f7U,
  0xb01fb1cf605f7e0U, 0xf51ffb01fbe52f13U, 0x7fd39bf15f2181cU, 0x17fef612ff0ae2f3U,
  0xe9fdc61310024122U, 0xcf613f519f64207U, 0x2fe03c7eb05e1d5U, 0xe81607fde5edd9e6U,
  0xf9ffffee1dece8U, 0xeb3705d601fbf506U, 0xf70007f61beaf4edU, 0x112070e080209f9U,
  0xf313e10af40af3e8U, 0x14f107e811e6e9U, 0x4ea0502eb0fe3ebU, 0x8f5fa4001fff209U,
  0x8f806fbffe90e2bU, 0x2f61707f30b10U, 0x5f40317f3e9000fU, 0xebf81005f4fa28f0U,
  0xf9f80fe803f323ffU, 0xff8f4e60af90319U, 0x1fa06f7f704efd7U, 0x8f7e203f7ec17bcU,
  0x6eaeefafffb0105U, 0xf71311fd0502f9f4U, 0x5dc0cec0605U, 0x22300000d78U,
  0x4420000007bU, 0x6a1000001c3U, 0xf619f21c00000db5U, 0x2f0d09fbea2be7U,
  0x1826f517ece21f09U, 0x4c935e805cd03f2U, 0x9e51a0eeb26ce2fU, 0xf8e624f22b19e61aU,
  0xede0e3094420ea13U, 0xf7f705fcf1f6ed03U, 0xe0f0e512df1cef0dU, 0x26eeb003d7020100U,
  0x60231d02e2c0b1bU, 0xf0e410f0fec3c897U, 0x322bfe32fc10e223U, 0x52f74ce1f933090eU,
  0x4e41414c79bee9fU, 0xee1b0d09ef371519U, 0x48e318e4101cfaecU, 0x3f302071cb8e6eaU,
  0xeefa37e5deff212aU, 0xfdd8f60decf9d9eeU, 0x205e121e61dd6c7U, 0xf5dece091af2cee1U,
  0x1113d2caeed41006U, 0x1404ef10d03611f8U, 0xf6dce307f1e906faU, 0xfae7fa1dede418faU,
  0xfbfaf60ed6e3e42eU, 0x16e12c3ce6f6eff7U, 0xe9deea81e705f203U, 0xedebf61a1cbaf6ecU,
  0x11f70811df33fe00U, 0xfce811cdfbfdf0f3U, 0xfdfcef1213befbfbU, 0x2153d26011a17e2U,
  0x1e08b6c3db09efe4U, 0x4f705113cf025daU, 0x2cf9e8580d1e05feU, 0x5ae4f92c04d406ceU,
  0x1fffffc00e1edeeeU, 0x3828d74a1df20600U, 0x61dae2fad7e6e637U, 0xf617fbfcbadce5efU,
  0x3f01bec00acfefaU, 0xf4f804ef0ae90d26U, 0xeb010e0b0af704e5U, 0xe116fadd09f1e7edU,
  0x16071719edf307e8U, 0xa05fce61324eef2U, 0xc00223d2071c2412U, 0x916410c160efcedU,
  0xce601faf71ee80eU, 0xed1c18c70cbde501U, 0x2cc2d1de91c07fbU, 0x16e8fee3f731e7f5U,
  0xf6f01a2209411fe3U, 0x706ef27e9e91c24U, 0xaf40912f210efe3U, 0x5faf00be7111326U,
  0x709fefeff0e0b17U, 0x7ff18ef132211e4U, 0x2209fa1ed2ef0f1cU, 0x2cdd0911f602f51cU,
  0x223140cf3fa24feU, 0xf505e4f6f40c10daU, 0xeee409041ba9e0U, 0xfad8c1da1cfd041dU,
  0xf01d1005f0270ce3U, 0x154414789ed922f7U, 0xf12cf913d9e55216U, 0x6c10ffccdf90bd7U,
  0xf7f613e50cd7fbf5U, 0xf5e3ec0f1e0a0f26U, 0xfffffbed1de1eff4U, 0x14a2fffff7aeU,
  0x30d00000511U, 0xfffff31ffffff1d4U, 0xdaf70d0100000cc6U, 0xff2e04ffcff7f62bU,
  0xeb12002340fde7edU, 0xec13e6fb06e6100dU, 0x2a14e71af5153424U, 0x30dda23e9fd1d13U,
  0x1e0843faa628dcf5U, 0xc72141f035e90fU, 0x15e92ede01c0e9d2U, 0x10f907ebd4e6e40aU,
  0x14d525ebf3f52625U, 0xf7fe0eb9f7e2e63aU, 0xd9dcd3c0e20020f8U, 0xfa25e60af416e7e4U,
  0xc71b0efc1cfe2705U, 0xb132bbcd1be713f1U, 0xe143030d537131dU, 0x901706c3b5e02206U,
  0xe595dddfc0b039faU, 0xb2daca1c27b2c7c1U, 0x29040b1f2d2b15e0U, 0xf9153a83e5fe0943U,
  0xfddca2e0fadb13f0U, 0x22030fed4e43e20dU, 0xdc0001f9ec2b5013U, 0xf8eae631e8fd01d6U,
  0xf501121ceef325U, 0x171df0fdf410e70cU, 0x1d0524092b140503U, 0xbca1109f981043eU,
  0xf9f1ebf4221e0a28U, 0x3ecc2d0e15d5e4e9U, 0x4ab0a101be3U, 0x82efffffaa2U,
  0x15df00001205U, 0xffffff0300000045U, 0xb9d12efa00000127U, 0xf3be0afdf91b16f8U,
  0xd9defe0bfaeb0c0cU, 0xfcfd0a10f1e70a0cU, 0x2eecc51d20ee0de1U, 0xf60a071a14c10ee2U,
  0xfeedf9f4f4aaecf7U, 0x21d4ca0819ef14eeU, 0xf0f0bfb2cc829e0U, 0xe80a150113c4ffeaU,
  0xfcfcfb2402d20b08U, 0xeaea0f2103b4f819U, 0x21302230f9e9eff9U, 0x1e310662fab7010fU,
  0xfd1f1d34e3b6f81dU, 0xd90f051e3be1ecf3U, 0xe9170a2afeeb19efU, 0xbd090bffee001effU,
  0xc717fd06111af2d3U, 0x4a41b70c2cbef2fcU, 0x1511de194439d7e3U, 0xa82311020b00fee4U,
  0x2610c7fc17b7fffeU, 0xf0000133a29dedaU, 0xd52edb05d2ec15d8U, 0x20de0715f1e1f117U,
  0xf7fd1b231409ea08U, 0x200702fffa031bf7U, 0x1d14ed081002e0f8U, 0xf6f507fe01d9c116U,
  0xe805d7e80e01eaf1U, 0xd11b810200d9fd09U, 0xe615d2e61085f31cU, 0x800fbf519bef60eU,
  0x291fc8040605f9eaU, 0x1308ffdde2e802fcU, 0xfff30413f80ae505U, 0x15fb0923f911fbe4U,
  0x14e6080be52004efU, 0x1b00fc1bed06d8fdU, 0x270ae6301415ffe1U, 0x2202f618f12efee3U,
  0x17eff809fe10dffbU, 0x2a02d8340606f8e0U, 0x180aed0fe217f6dcU, 0x181900fefa02e0edU,
  0x19ebed1b172ffbe2U, 0x1b210a072ffe16f1U, 0xa3c6061a1205e3f6U, 0xa98d2934eb0829ffU,
  0xa5cd0e10ffbe6b16U, 0x2afff0fcfbf211eaU, 0x21ea002d11fee1feU, 0x2af8fe072101f51aU,
  0x1fee90409fadf0bU, 0x3015e303070c0005U, 0xbef7fffe171af705U, 0x1df2f306260f0de6U,
  0x2efae206db1710eeU, 0xbeffed0a240a04dbU, 0xf9eb16083fef21c1U, 0x26db2909101405e9U,
  0xaff80306210ceaebU, 0x4a1b05023129efd3U, 0x9dfff236f9f9f204U, 0x22f7fafd2ddbefd7U,
  0x3cff0e140f0e031fU, 0x9a03ed58fdf023d4U, 0x320502185cca3787U, 0x19f3faeaeffb23cdU,
  0x8cfa0025e819f72eU, 0x6f201f7191514e1U, 0x56bc011c0322U, 0x2aad000043a4U,
  0x211900008054U, 0x52bd000043cdU, 0xdb02e4f500003cf7U, 0x8332118370e0d0fU,
  0x315ff0f07e8efb7U, 0xfd04070bfa190aaaU, 0xecfc15ffe84704ffU, 0x13fb002bfafcf534U,
  0x39f5050acfe2fc23U, 0xf5010f18cbf8d815U, 0xc30f09ea080c0b5dU, 0xe0d70f32ea027f0bU,
  0xbe67e657f9e20211U, 0xef1fc15e607e7e5U, 0x3a26d8b106150dd0U, 0x1d0fedfcdfe969e2U,
  0x3137ca31f8ffe818U, 0x91a3cfaf5211c1dU, 0xe407f1211fff1bf6U, 0x1ac9161c1cbe080eU,
  0xf8ff18d8f5210107U, 0xd4df013f01f8cef7U, 0x9dddc11051903f7U, 0x10f32e1d48f8ecefU,
  0xf6c71326f5f4fbb7U, 0x4722190de9f101f9U, 0xc280f071cf308ffU, 0xaf20426fb36fdebU,
  0x20edc61400d90bf8U, 0xe5f2f6f4f3e20200U, 0x702fff0cefbfb08U, 0x13082bfde215f519U,
  0xd1ceef3f4d9f811U, 0xcd02e9f11b0df325U, 0x5140902e6fbU, 0xb5fffffd92U,
  0xfffffe4effffef68U, 0xfffffe13fffffeb1U, 0xfffffed8ffffe8bcU, 0xef500000f65U,
  0xfffffa75fffffa56U, 0xffffd792fffffec8U, 0x1326ffffdffbU, 0x1a36ffffee5cU,
  0x5950000027bU, 0xc68fffffd08U, 0xffffe772ffffd539U, 0x15b70000051cU,
  0xfffffef900001d4cU, 0xfffff31ffffffc76U, 0xe0ad34100001faaU, 0xceb72fe532003427U,
  0xf1251325210816d2U, 0x17210df3fcead4eeU, 0xfff9e622091b2935U, 0xfe42e7dfedefdd3cU,
  0xdd34f50f1c27f702U, 0xccdf5fc1c0118f0U, 0x25e232b9e7e47f4fU, 0x31d9e42bde2429f2U,
  0xf119e6fe031ed640U, 0x2b1a1bd4f84d31cbU, 0x1cb40f712e12fe4U, 0xdc1009284ce80428U,
  0xd26b118cc300c38U, 0xc817f1b7e4b41c43U, 0xfffffe191cef37baU, 0x143fffffad0U,
  0xbb6fffff859U, 0xfffffeb70000018dU, 0xfefea11000006c9U, 0x28e2ece3bf07f3c6U,
  0xe9e3c7f621d83dfbU, 0x1609e010dadccdeeU, 0x11811f2417f8d205U, 0x230424daaef51a08U,
  0xf917e3e1f505f30dU, 0xe4a4f624e8024e08U, 0x41ef9edddc1e5e7U, 0x341df118d60f0bedU,
  0x40f609ed0e230d35U, 0xf7edf302eefde311U, 0xcf3213e52fd4a3fcU, 0xf5abdb0108ef0ce0U,
  0x14360b29dded19dcU, 0x4dfd41e0aece60fU, 0x12874a36fc10U, 0xec70000190dU,
  0xfffffb9500000c29U, 0x12a80000115dU, 0xff8f3f70000037fU, 0x12f20011f6f000f5U,
  0xfefd0121f50109f6U, 0xf500f200ff03eef7U, 0xa5c40f41f4fdfdf1U, 0xfdf40408b04cc110U,
  0x7fef3ebf210e9f2U, 0x9ffff010302fafbU, 0x13031013f1fb0307U, 0xde03fc14f2f900feU,
  0x12f9d6ea12f7f40bU, 0x4fefcfad40106f1U, 0xf410fff707051e07U, 0xc62cfc32d2fae1e1U,
  0xd8072b01f1fdd354U, 0x11f109f60202141dU, 0xefebd3ecf90012f4U, 0xfcecf0f2ecf9fef7U,
  0x4ff0a020d14fcf7U, 0xf9060d090506fe0dU, 0x7f8f4fa08eff60bU, 0x30b210e0500f5f8U,
  0xe8e818ff0a0b0707U, 0x4f9ecefc5f193f8U, 0xf8f2170de127f5daU, 0x3f51c0c1e0dddfaU,
  0xbf7f7f0ef02ea0cU, 0x4eff9ee19fcf1U, 0xfb06fee9e9f5effbU, 0x10cf7f2f8fbf5f5U,
  0xef0a070cfbf30af0U, 0xee03c11ffce8f306U, 0x807eef0bcce9ed7U, 0xf8f5fd0bfaff01f7U,
  0xfdf6fb0c10eeee15U, 0xfff4ebf5f7f7f412U, 0x1f2e9f908f60007U, 0x30a061ff2f1edfeU,
  0xf2dcf10106f7e9U, 0xfdf1eb130010e4fdU, 0xef0c2f2c24fef217U, 0xf403fcf325c60a3aU,
  0x9f0ecf3f300f2eeU, 0x30101fd09ee0307U, 0xebfa080917e6190fU, 0xeb08f80afcf30f06U,
  0xfb11071400f6fbfdU, 0x9130d15f5070aedU, 0xf2fafaf4f0f010e9U, 0xf21e9efa09ff0411U,
  0x6fcf5eadb0be9d0U, 0x9f2f201f8fd09f6U, 0xf9eeec001d0ffc0aU, 0x5f0f3f912000b06U,
  0xf0d1f1d1504070dU, 0x80c16f3f011fe0bU, 0xfa1f03e1fe1210f9U, 0xf71d113100f6fdebU,
  0x283320c4fb020202U, 0xf4e4fdf214de018fU, 0xf80a02e9010e02d8U, 0xf9f0000604f2fb0aU,
  0xef1ef10e22e9f93dU, 0xfa08f90808e9fc07U, 0x5ff0103fe0807f0U, 0xf604fe17f30df6fbU,
  0x20500fc0012e207U, 0x10307f32d1fcf6f3U, 0x2010dedf2f754fcU, 0xf9faf614d206ffeeU,
  0xf8eff8ff05fa10fbU, 0xfe08fefdf11e13e8U, 0x13d608fe0efcU, 0xcff00001e1aU,
  0x156000035f8U, 0xfffff4d400000ff4U, 0xc620ecfafffff243U, 0xe01dca2029f8d4eeU,
  0xfd19be3c1cf8e020U, 0xf528ee0f0319e2ffU, 0x16271c0d63e70129U, 0xd102b132e130926U,
  0xf10bf1d636f4f736U, 0xebfb27f6fc0a03f4U, 0x1601090be306e7c8U, 0x35a2c50eff0f31bbU,
  0x12e0b7a7ebb243d5U, 0xfb2b2cd5f8eaf5beU, 0xf0ea1e321ecdf5f8U, 0x14314f04fae4fd91U,
  0x143f213159d3e31aU, 0xd4ff0f4e01e9f60cU, 0x23dbc3fdf0ee804U, 0xf4d612cefc07f7e9U,
  0xf9c3e22016212009U, 0x343a0160fde80d0eU, 0x20f407252bc72fefU, 0x25d8ca0116c633c3U,
  0x6a33eae7c8fc060aU, 0x5a0114fce8b3671cU, 0x3907e7e923bf2afdU, 0x1e0afbee0acb1801U,
  0x11f0fa05f3cae953U, 0x5f3d2cee811007fU, 0x3c1fec16eff1fde0U, 0x12d34507001028daU,
  0x22f7d6121cd916cfU, 0x1cd3f936f4040bd0U, 0xd7cddd04e4ecfbd0U, 0xf5f3e22fe5ee1beeU,
  0x1dd2f73619fbf9bfU, 0xe6c7ede7e508edaaU, 0xdb0107eaebf7fae1U, 0xc703f4ce23eb18fcU,
  0xfc08f0f90bf8e428U, 0xe0e018f90c01fc01U, 0xb6f427b2efe9d9e2U, 0xdff0e0fd26f8b8feU,
  0xfb3aeb37355eea0aU, 0x1f6df335e7d8c9fdU, 0x20edf21a9cddc7c8U, 0x235cb5003d8edcdU,
  0x2d2614fbfc1efd02U, 0x7022403dcc74ef0U, 0xcffd1ef40ff80fcfU, 0xf7dae898efe7ed10U,
  0x4e52a5ce39fe2014U, 0xf51ce4ee984c35c9U, 0x607eefb230d0937U, 0x4227eb112ff10600U,
  0x90ec01ffe0ed8c3U, 0x6d33bbd108fef010U, 0x242bdeeaa5fe0037U, 0xf70293bee01c2d0bU,
  0x1b32c3cde503d965U, 0x2936da14c132ecc3U, 0xf3400fdce120fcb2U, 0xa26fef8f8eff52eU,
  0xe10f5d3d5bdb7edU, 0xf81616e800a6f2f5U, 0xbbe8f305d90d0ff6U, 0xd2fbe9f81ceff4faU,
  0xf5ed03fd1ae3e9d9U, 0xc9e4df08fe32cf09U, 0xebe1d4091115fc32U, 0xf7083115e6fdd5d8U,
  0xd1d5e2e80df516eeU, 0xcee10cf529ef0701U, 0xfffff0badea6dadeU, 0xffffca5100000930U,
  0x110d00000e81U, 0x10dcffffff45U, 0x300fcfc00002214U, 0x1115f2030bfc01f6U,
  0x90bfafffffdec03U, 0x20ff6020f1dfa10U, 0x41fb0901f3f301eeU, 0xf0fc120fce53d0e0U,
  0xf05200e05faf30bU, 0x5f214090113fef8U, 0x4f406fe120af305U, 0xfffffa041111ef13U,
  0xfd0aff02f909f907U, 0xf8020a11fd000b07U, 0x4f9faf110edf605U, 0xf3edea17e00cfef1U,
  0xf301f7ef03225c45U, 0xfcf80a0bfdfffaecU, 0xf4010c0703ecf5f4U, 0xf60727fd09050013U,
  0xb0204f908041f08U, 0x10001f5e9fe0ffdU, 0xf607f9ede50cf3U, 0x9eaf8f1030507efU,
  0x10d04f4fffff8faU, 0xbf2f2fcc4c9ecd7U, 0xff1fefcff04040eU, 0x5fce8e805e5e50dU,
  0x2fc080ef8dd02f9U, 0x180103fdf4e2eb05U, 0x5f90104ddf7eafeU, 0x40512fc07fbf5U,
  0xcfaf5f10601f2faU, 0xdfd0e4c4210202f2U, 0x18e8ecf3205d33f7U, 0x3f504eb161e0b00U,
  0xfa09fb0606f80af0U, 0x6f8fe0807e8f104U, 0x5f9f7f1f1f1f8feU, 0x410f7eafc002108U,
  0xf5f602edf00d15fbU, 0xf30bf00a04f1ea00U, 0xf810298e6f4fb02U, 0xf1f8edee061d1912U,
  0xf5faf8ffebf6f4f0U, 0x4fb0900f9f6f610U, 0xc0f07fb03210004U, 0xfc0e0800f401f2f7U,
  0xfc1104fd0804fe07U, 0xf7f905f6f8f60504U, 0x100faf7f802fc08U, 0x21dbdcb5faf7ff00U,
  0x8f7fdffb3c625e7U, 0x102f101ec01f6ffU, 0xe00edfdf2f4fb05U, 0x1200fd05f20101f9U,
  0x1b00eef1f7f9e3fcU, 0x50d0b00f7f3e0efU, 0xfbff0dfdeefef709U, 0xf0816f106f70f18U,
  0xf00844d1fefef5e8U, 0xedea090f18d3bd1cU, 0xfe0a0ffb0af7e80fU, 0xec0a0805ff04ef09U,
  0xfa05f7fd0603fa08U, 0xebfdf6040cfc0102U, 0x4e008fc0ff7f703U, 0xfa0fffeb120bf80bU,
  0x10cfd0f11f20b08U, 0x14d2d0f709edfdfeU, 0xfa10000850f32a1cU, 0xee1203faf0e5ff01U,
  0x2f8fefa08e4faf6U, 0xf902f10522fc0802U, 0xfffff163edf3030eU, 0x23fbfffff088U,
  0x1ab9000001b4U, 0x24300001cf2U, 0xeeb4005afffffc1dU, 0xf7b9194062e9e7f5U,
  0xfbe6ffe6cdfe1f73U, 0x12be326db32f831U, 0x1e18f117221f14faU, 0x2b2ae7ecb11a1bf4U,
  0x19251ee8fe28f4eeU, 0xe8dbe9b9688e48c8U, 0xbd510dec9c6edbbU, 0xd43382d3010be209U,
  0xcc05e5e21131e6e9U, 0xde05fb0af2dbd4cfU, 0xe930e915d1e7f0e6U, 0xf52d26c9c9ef24f7U,
  0xdc111cf0c9a8c7f6U, 0x1aefceedc2c7ed01U, 0xdecb32dfa2e27f0U, 0xe2e9fe00c8bfd5e4U,
  0xfafdefa5d7ead71fU, 0xe9fdfbdc04de07dbU, 0xdafcf703fc0fa7U, 0x304d1230ee2fae0U,
  0xe735e246d7f83f07U, 0xf9143201f4df3a08U, 0x34f3f01feaee14fdU, 0x170e0841e21009f5U,
  0xeb18f8fc212e364dU, 0x7f502d8085b0efcU, 0xd4f7d6e5fa2dfbddU, 0xdb05ebf12d112613U,
  0x1018f3e7e9061509U, 0xe428c81bd5e10df5U, 0x1817f100fbe81644U, 0x15130be9130e0b0cU,
  0xd0f6e3e915b1e7ddU, 0xfa2a25cb28c11a0aU, 0xe02811e502c941c6U, 0xdaf9c91df81ff8edU,
  0xe4173931101709eaU, 0x51e221005f11407U, 0xfee9c9fbe9d8f905U, 0xf6f839051e0af204U,
  0x4f2a070f2644160aU, 0xfe0cf31e29d7fa37U, 0xdc0ce52df90ef14bU, 0xa3ebdeaf17f00edU,
  0x4324e6e4e5e811d7U, 0x2feb07fbecccfed3U, 0xc4f9ed7033e4b9bbU, 0xf145e0be2345f6U,
  0x3bee0eefae44e12bU, 0x25a3003008db053aU, 0xdde3f102464bf42bU, 0xc1fbbaedcd2fdc69U,
  0xd52600f0e1f0d4faU, 0xdb36fd0e0c072ffcU, 0xf709f5f2020d33e7U, 0x160315e5fe1a10f9U,
  0xf80fef1615fe110aU, 0xfaf805fbfbf32306U, 0xf12b01e3090b0b02U, 0xf22cfa14fadd2500U,
  0xe82016e50f152b16U, 0xe40f06fa37263612U, 0xf410daf218f1f9f6U, 0xf00ddc09fddb34fbU,
  0xe0fce213f9e318d6U, 0xef1c01f8f0e0fcf6U, 0x3fee10307ef0514U, 0x1bf6fe0509e900efU,
  0xc0af22d0adef60bU, 0x507fa1206d600f7U, 0xfffffc9011f202ecU, 0xffffe50800004130U,
  0xffffe09c0000047dU, 0xffffe358000001ebU, 0xfff10b1300002219U, 0xffe30e00edf80509U,
  0x5f5f8180dff060dU, 0x6e4e5fce30de9f4U, 0xc101f664f310f60bU, 0xec19012506e13819U,
  0xfae9c6e9dcf30be8U, 0xef1c050e18fade16U, 0xe81a1de608040106U, 0x20ff103fd190503U,
  0x7e0060ce7fcfbf7U, 0xffe81605f6ea18f9U, 0xf9e9e2e508050f0bU, 0x1e862efe171ff8f1U,
  0xaf20af9a7cfc09fU, 0x2ece3070bfef3f6U, 0xe4f5170cfc0ae6U, 0xbf10b12f6fbfaecU,
  0xaea040aeefff2f4U, 0x9f702111605051aU, 0xfdf9f30d070a0f1dU, 0x9ee05fcfe001103U,
  0x26a9240a000af204U, 0xfff7fbee521aca30U, 0xef301090d0ff900U, 0x1c0312f7f10ff7faU,
  0xcfa05f6f40ef8e9U, 0x10fe09e7f105eff0U, 0xfdfb0bfdfcfcf8f8U, 0x7fc0905f4f3f1f8U,
  0x9131413090afcf7U, 0xb4561315effd0af8U, 0xf8f1140209da76eeU, 0xf1ed10051c1716fcU,
  0xe0f604fdfaf1f106U, 0xe4f513050602080eU, 0xf926f3e0062606f6U, 0x1dfc0bf1faf117e3U,
  0x111e00ef1d0318edU, 0x1e1d8d0ea0213f1U, 0xac9c4d7041ef7eeU, 0xedf8f3022cf00b4dU,
  0xf5f90008d7eef817U, 0x2010d1dfaf3f9ffU, 0xff0c0807eb0328U, 0xfbfb01fff4f51109U,
  0x10eef702ffe3ffe7U, 0x2feeb04fbeef0e7U, 0xc1a0109f0f500feU, 0x3e4f3e16f6ee0eeaU,
  0xcffebfcd006f7d5U, 0xf202fa03f4fbfe05U, 0xfffd060300e505fdU, 0xf103fff802f803f1U,
  0xeed0700eaf102e6U, 0xf2ec0008010f0414U, 0xf6efeef70319f612U, 0xa0010020b09f8f0U,
  0x332ed718fa031de8U, 0xfa0af4f61d3cce81U, 0x17f9fc040d0ce7U, 0x404fe04ebdf1afcU,
  0xf9f300fc01ed1514U, 0x1f30309fbe610fdU, 0x3020b0cee02fbf0U, 0x10e0604e7fcf6fcU,
  0xbf90a13f0e0f4ecU, 0x2ec42ef5fceff3f8U, 0xfefe04fc5f340c42U, 0xf8f2e7f516f20417U,
  0x507ded2f008f907U, 0xfe10e5e5f50809fbU, 0xfffffe4af3fafe07U, 0xffffeb3a0000236eU,
  0xaa2ffffe468U, 0x20900000a37U, 0xa8dceb16fffffdc9U, 0x2afc0b0b4e04f0f9U,
  0xdec0de4273cb6c5U, 0xee56ae3637dfcbU, 0x171625c2070f371dU, 0xd90dfadd080f6707U,
  0xf2dadede14144e05U, 0x42ff2715230c3524U, 0xf7feee00d9def9eaU, 0xdae00bffe20a01d9U,
  0xd5c320c5dcf71b17U, 0xc8f804fdd83b09f4U, 0xfcd9f80806381210U, 0x5c425000a0f0ae5U,
  0xd4f52afdf1e806feU, 0x5aeee5f6f709e7dfU, 0x262ad729110648fcU, 0xf201dc2c03071a21U,
  0xf40912f71c061cf1U, 0x11fe0fd00ae1d844U, 0xf3e033d019b1e701U, 0xf3c8c3e01d06fd6eU,
  0xffd9e8f7f1ca15bbU, 0xb69df564e5cb05f8U, 0xdbf90135dfcb3022U, 0x6e6004afdd9ebf1U,
  0xf121a6e9c7e5dadaU, 0xcf2e2c331ed0ee4U, 0x4cdf9f7f8000822U, 0x37f4d609e4f60e27U,
  0xd23dbe9fbfaec34U, 0xfcf0ed0bf425e81fU, 0xe724ef102024170eU, 0xd11b18f22e13df19U,
  0xd11efe12f709ede6U, 0xdaea2639e6e1eff3U, 0xb741c03ddde5f8f3U, 0x54fd72f09db27f5U,
  0x1332c0280a243edcU, 0x2a341a141815e106U, 0x54737b3f8b71cf4U, 0xb7ceed2cc5358d3U,
  0xef1506160016ff31U, 0x7e2c2fcb15ff20f8U, 0x5a1201bce63f6d15U, 0xd7f41b1d03f60d46U,
  0xe022fc19100134caU, 0xb3a20d06fde258b6U, 0xcce7381c1bb51cecU, 0x9a4ee3e426e6fa04U,
  0x91d40fcce6e70702U, 0xb8a52a0bdd22fffdU, 0x9a812ac920b0a0beU, 0x9a30caafe4f6b0a9U,
  0x18070c121013f8d6U, 0xf105ff10edd3240fU, 0xef06d7ddd5ea27e7U, 0xfb06ce4de0e0f3f0U,
  0xadccd070ecd0c38U, 0xe4e1b6d10d1f0c08U, 0xf52ee0071a0df2fbU, 0x21efe8e30ffffd25U,
  0x4d1c9cbf5021efaU, 0x27dd09b00b03f80bU, 0xe29a43f0bd051607U, 0xe5d11ae0bdd00012U,
  0xd04d9d209c3bdfaU, 0xaadef01204200116U, 0xd1112df247e7ffe6U, 0xf0ca92253cfbf2f5U,
  0xc6d6cddf00b930dbU, 0xece5f309f2f3ddd1U, 0xfffff551123ed80aU, 0x1dccfffffc6fU,
  0xffffcbe3fffffed3U, 0x97900002f23U, 0x1dd3f7ed00002d46U, 0x2cde0e0cf235edfdU,
  0xdcca1fe72cebfbbfU, 0xcb2823e0ead73f1cU, 0xda69f1d0feed30d8U, 0x4f41be9e20a061bU,
  0xe00601e618e21bc9U, 0xda1bf9e201ecf1cdU, 0x11ff07ff31b7bf33U, 0xf8daf6b899180bc3U,
  0xff152524c5033433U, 0x303e0e24e4e8d7U, 0xeeff420507e61cc0U, 0xfcdff0ce0cd23407U,
  0x17d8f705e5dacd0fU, 0x5c5d5f52307fb02U, 0x9a16d0e8daa76716U, 0xaa0be30bdf0a4a02U,
  0xb3092212eb1af2f6U, 0x9f6dc21cc06cf3dU, 0xf5faf4b2e408f4f7U, 0x71107eedb03e708U,
  0xf4d11109ee4aec15U, 0x44cf3dcceed30d05U, 0xf2cbf3d9dbeffb22U, 0xfb102e222bcff0fcU,
  0xe8060afe0e01d608U, 0x10072de644351611U, 0x2dfe12d5ee08f222U, 0xda0de51a300d0bedU,
  0xff3100a61925d8f0U, 0x33fe1def20bb1681U, 0x1146221e2d0bU, 0x521000000baU,
  0x9fc0000162eU, 0x1b8fffffcfdU, 0xcb800000342U, 0x14ab00000efcU,
  0x869000002c6U, 0xfffffaf3ffffeeffU, 0xe06dc0400000094U, 0xfbd0f2df08e0f705U,
  0x812f3c821ff1402U, 0xefa600df1f091ce8U, 0x2afc01e902fa0f2aU, 0xecd6e4cfef1206dcU,
  0x15070cf50df52d46U, 0x1107d6f7fd01cf17U, 0x2926f116f103eaffU, 0xdb141630fecbc7f9U,
  0x40190a0df01cc2edU, 0x17e9d204e602e7f2U, 0xe40800090cdd0636U, 0x19f8d3ec03d5f90dU,
  0xe11e0bfce3fcf73eU, 0x28f6111734b1420dU, 0x5f90b0ceaf518f7U, 0xae8f2031fe80c06U,
  0xf8fff50d2a1a3034U, 0x1115f6e8ffd50a0dU, 0x4f2f51b0b09f505U, 0x9161fd9faececefU,
  0xecdcf3f818f4f5fdU, 0xd81cf7cf08de0909U, 0xe7fcf61a2620f2e0U, 0x1b0a0b0304c314fdU,
  0xdc280b130913ec01U, 0x7ef31df08e21605U, 0xd9f30d02dff3f3f5U, 0xf80017d411fcf711U,
  0xfbf1ca04e3fdfce0U, 0x21f0ddea13d417faU, 0xfe0f092dfa0bf707U, 0x9d6f2ea04d71900U,
  0xf1fff1ffecebe10eU, 0x2efdddc226eff508U, 0xfa0efceff5ef12fbU, 0xdfe4e7fbe9f8f9f1U,
  0x2f9ebe8160809f7U, 0xc6f2f623f802f8f6U, 0x908e2d7faf8dbdfU, 0xe11300d8e4090601U,
  0x1714eaf4f3fdf500U, 0xd1050608fbe5fb02U, 0x20f207d00f24e808U, 0xec2ee019ab1ef30bU,
  0x9fe21e7ff16fb0eU, 0xf418f8f5e50cfcffU, 0x22facae70c03e40cU, 0xdbc6e6fef705faf5U,
  0xbe2d50b0c22ed11U, 0xcca712ecde02f2e8U, 0x7f9d9e509f6d9cfU, 0xeae30dede706060cU,
  0x5101dfa1a181319U, 0xf3e7070718fd0fc9U, 0x2dd5b0e6faf60afcU, 0x519aec4243bb005U,
  0xec0cdee6df1dd921U, 0x151702ef00081c0fU, 0xf70b190afee3e7d3U, 0xd6331103f3dcf902U,
  0x29d5a715250a12f3U, 0xfc1fcee7f82cb01aU, 0xcf0a14cff4080effU, 0x2be81ddd1714301aU,
  0x50d0dfe07e1eac4U, 0xedf3f91f09e311f7U, 0x1edfc80101e5f403U, 0x905dacd2923b709U,
  0xc206d9ec07fef01eU, 0x4f0104f6e4220316U, 0xc5df00e4e4dffbf0U, 0x350301f205ffaefeU,
  0x2e13d6f706e4fb03U, 0xf6ebd0e1cbf315daU, 0xb04edf3102eea3eU, 0x10d0e14ede50bf2U,
  0xc7ed1d0df0ffef00U, 0x8f4fee8f6d7ba0eU, 0x19edf0f81613d3f4U, 0x3f5d806c41520ecU,
  0xfae6ff2018261519U, 0xed17121d07fafc0cU, 0xd6f4f1dcff12f51aU, 0x260de4f3fe0ac712U,
  0x31f4d2f5f200e612U, 0xd1dcf801d7ea04f8U, 0xcedec0b1d13cf1cU, 0xe3f41e1714f5f913U,
  0xfe32ebefedf6e1fbU, 0xf4193a1d0df3f81aU, 0x1b26e511f8f215d4U, 0xfa061bc3ebf2f70bU,
  0xf00ee610211007faU, 0xf90206f3edebec16U, 0x172ff3ff08feedf5U, 0xdd06d435ddd71103U,
  0xd83ddb10121309e3U, 0xe706f9f10be40841U, 0xd00dae82bf925e5U, 0xd0fcf411eef5dc11U,
  0xddae5c3220e21ebU, 0xf8d1e0f903e8fcfeU, 0xdffcffdced0400f5U, 0xf5c614de2d0e142fU,
  0x8f1ffdaeedd11fcU, 0xe6c5edd5f6eff80aU, 0x9e3d8f8f604f7e9U, 0xf213fb07defbf916U,
  0xf9031aff050a0c04U, 0x1eec040cfcde6030U, 0xd0f08eef6bc0819U, 0x212c14c310421be5U,
  0x1ecdea062512fb23U, 0xdbb3efd7eb2214daU, 0x2707a3dadcef01e3U, 0xa3b324fe11d40202U,
  0xc21cc23eac1d6deU, 0xc8ab1bb00b30ddfeU, 0xe62efb020ceaf7d6U, 0x17ff14f8fcdc2805U,
  0x151ac3d3d2f41e0aU, 0x1416fc48fefece0dU, 0x81fe32a0928450dU, 0xff33d2d1dddcb819U,
  0xf31dd1f51408e905U, 0xf2dcf5c5fb14e3fbU, 0xbe4e703f4f61401U, 0xbbefe81be225e9faU,
  0x10fc02e7f404e600U, 0xcfd2e412f4eff908U, 0x12c904ecfafde814U, 0xcee9dce6041ad30dU,
  0xf1b940b6e0f9db02U, 0x5f5e91ef87f13efU, 0x3e7ec00f8f43806U, 0xdce705faf60ce8faU,
  0xebfdeef2fd22efd8U, 0xe0cd504fbf8bcfcU, 0xe6ede4f8f0e8ed0aU, 0xeaf730042918e3f9U,
  0xede9032500f0e1d3U, 0x2ebffdaeddd0005U, 0xe3e6bff5f3eed5e1U, 0xed0a0b3bf2ee8c00U,
  0xf74d0c161efb1ecfU, 0xaec5da1301dd2b0eU, 0x261416f121100cecU, 0x7ebdc100b0906f0U,
  0xc7eaf9e61008d605U, 0x1deef0c0e21b1f9U, 0xdaeee54102f401c2U, 0xd9eee9e4d0c5faeeU,
  0xf7f61614ef27f801U, 0x1b1903fcf6f2cffaU, 0xf5e9e40823f1f635U, 0x2202121f0301ccc8U,
  0xff21211fef7f3e3U, 0x6dfe4e3dfedf6ffU, 0xf3fcfff6f0dcd5f7U, 0x1c031401fff519f1U,
  0x4f80ef41becea14U, 0x1c020eedf9fcf8fdU, 0xfbfc19f1f6f0140dU, 0x190b11020015f2ecU,
  0x16e41ef8f5fc14e1U, 0x1a131003e9fd23fcU, 0x11f31a04e6ea180fU, 0x4e1611f3f3190af5U,
  0x1ef411f9e3dd0b0aU, 0xee2fef270417cd01U, 0x17ff200d010ed5eeU, 0xe170309f4171dd8U,
  0xaf7ea0beff2241cU, 0xd0914f503fff604U, 0xf704dcbf0bf22d24U, 0xe601f0fc19130402U,
  0xff02fe00e9fd2af9U, 0x2f606020e0329e6U, 0x7caccc6efea2b09U, 0xdd0beaf817090111U,
  0x2002060bfbfa0301U, 0x7040afdede219d2U, 0xee0109e5351ff221U, 0xe3f919ee25f4edf3U,
  0xfe1ccf1fc0c01U, 0x419ed180124ef0dU, 0xed22fb35010d23f6U, 0xe11928fbeac4ebe8U,
  0xc280add0111cb01U, 0xdaf817fa08080dfbU, 0x1a03e5cde0ea0c25U, 0x50bf9eff118fc15U,
  0xf42502ea091509fdU, 0xe20be20fd7d21cf6U, 0xdfbf8e62b31eb1aU, 0xe300030210f60b0dU,
  0x2f934e4c8fe00eeU, 0xff0f1301e517fafdU, 0x1ff95805ca04cf0bU, 0xedd7dd24053239f8U,
  0xf9f7f20a010dcddfU, 0xd0efa10e7f5f6fcU, 0xeefa18e4151ddae9U, 0xf5ec03fdfd0444fbU,
  0xefeaf6370915f009U, 0x3adfc5c433f62ce6U, 0xe13dcfc23fd131bU, 0x14d4edfd2112f305U,
  0xe1e2f3f50212d8f1U, 0xb0b28f70b1705ebU, 0xe6f42ad516110400U, 0xfa00eb05f01025e2U,
  0xe50af710230f0fffU, 0xf01ef704edeffc06U, 0xf4f1dffb18f6f3f0U, 0x22f9fe221ff1ef0eU,
  0x402d9f0f8fe18feU, 0xef1605fc06e0f0f0U, 0xf107fde6031d0525U, 0xe2f4fdf3f6e0f504U,
  0x2503f4e201ff06f8U, 0xf9dc171c0d001c00U, 0x1113ffe00fe0e3faU, 0xd8ec0704290116ffU,
  0x12ff1cd500c2d0d7U, 0x9d8f5190d0b02feU, 0xef13fee7f8edf2f9U, 0xe9ec372609f5f600U,
  0xde052ff90d04e9faU, 0xdcfa25312d091a13U, 0xef0125eaefe2f1d6U, 0xeec0f92700e70202U,
  0xaf8f5f8090404ffU, 0x2b11e4f6e112f91fU, 0xed030e06ed0a1910U, 0x2aefd809211207fdU,
  0xfef418f1ef040bf2U, 0x130ef4fe03f203fdU, 0x27f707d000ee0ef2U, 0xa10d2fbecfa1921U,
  0x20f608fff0ee0c05U, 0x1924d932d0dd181aU, 0x11f6fcc1f708de1dU, 0xf91aeb1cd70aecf6U,
  0xfee801f22a14ef03U, 0x7ebfce9f40e0ff3U, 0xf7f701c5e4000418U, 0xf99a0a17192733d7U,
  0xf5fefb03d7dd12e1U, 0x1e2f6e7dd221ed6U, 0xf60ef601f3f504dcU, 0xfbf51b05040efaf7U,
  0xd25e2ea261917f2U, 0xf4e9ede710101119U, 0xeedbe41a1a0f23eeU, 0xf10fe60cfbd2e820U,
  0xfcfd0a0001f6f6d9U, 0xea0c19ecfee5fd1dU, 0xf026f0def60de0e2U, 0xfc3af31de6e30242U,
  0xe2e3e906230c24daU, 0xa1ff60deada02efU, 0xf5f9c9e8251621feU, 0x9e702f702ecf726U,
  0xe20dbdd2e9f6fb12U, 0xfb05f1e7def51437U, 0xcd01c4f404163404U, 0xf8e5efeac4d8fc00U,
  0xf8e7e510152f2700U, 0xbe5e0fefeeeea11U, 0xd3e70508fb0917d6U, 0xe634f4050df9f1fbU,
  0xefdffae90e070be0U, 0xfb02ecd517fb0016U, 0x29350ae5152a1ee4U, 0x18f00707ba0576f7U,
  0x282eddcbf600d4f2U, 0x1dea2625d9323719U, 0x3910d1e713eeede9U, 0xf7f12a25d32808ffU,
  0x512f411fa0ac6d6U, 0x622f4ebf41cf017U, 0x5070223fb34f129U, 0xf64eff0bf92401f9U,
  0xf503f70a0f222121U, 0x1223f2f5eb2bf0d9U, 0xe8ff6371c09U, 0x43a30000161eU,
  0x30bf000028caU, 0x231000001d40U, 0x34bc00004c91U, 0xe72ffffecbdU,
  0x1c86ffffff6eU, 0x17c000002305U, 0xb5f6a621ffffeb45U, 0x7cd92df90ef00dcbU,
  0x1afd4c0114e9ea19U, 0x917ab02ddfdff31U, 0xfa6dc6285310d10fU, 0xb51e2f4802e7d5f3U,
  0xd903f03add07f2baU, 0xffc7cefe6c14b20fU, 0x11e63504db9adeedU, 0x27f07f15ed2ef7cdU,
  0xcbc7e3305509118cU, 0x140362cc00c6b10U, 0x64c23d170fd64852U, 0xf564cf04b2d2cee1U,
  0x4fedaa8efddfdb5U, 0xb9a1fbb469d013d4U, 0x90618e429e3U, 0x2fcfffff918U,
  0xffffff1a000009bbU, 0x7d0fffff8fbU, 0xbcbe3fcf00000f1dU, 0x1efe0a03110e0fb9U,
  0x2c1e9e72d522a6fU, 0x1b42edf9620edb55U, 0x36e7eac054ee23e4U, 0xa4289331e0c2b7fU,
  0xc7d2d5102dec2f25U, 0xfad6d4060d4de4c7U, 0x13222fd91ac8020fU, 0x29d19513f6ec6f08U,
  0x71f6a4fdd012d505U, 0xef001addd5e9c7e7U, 0x1825531a4d29c916U, 0x142cc6d5f709ddc6U,
  0x3312e01e57cfe763U, 0x1dd30bd73ab209a6U, 0x3d0eae81c2fU, 0xfffff108fffffbaaU,
  0xfffffca600001e82U, 0xffffff27000002f9U, 0xc1f41ce2000004dbU, 0xd6ff34f924c81eeaU,
  0xeef614230ad0edceU, 0xc3eeeae70d071307U, 0xbcd4a5ea0cecf1efU, 0xdcd7dcf1cedbf6f1U,
  0x19f3000a04ee081fU, 0x15dbdd0af525ed24U, 0xf1040be7210df91dU, 0xe7f30315e5f2ee23U,
  0x8ee011304fdf606U, 0xe90ceee904f6ebfcU, 0x270e0630fbfa2017U, 0x3bbeeb0bff1ff103U,
  0xef03fff71d3ee6faU, 0xe0c101709f40f09U, 0xef4ec0113edeafbU, 0xe00304ff250a080aU,
  0xebe7dfe3fe052518U, 0xef2b4fe141fa2d18U, 0xff050508cfebd1f8U, 0x3c111728171e11ffU,
  0x5ed028f51b0e0dedU, 0xf1fb160490e2ef3eU, 0x1ae2fcece9f910f5U, 0xe1e3f4ed22f804f2U,
  0xff03161afe1808e9U, 0xe310fb02ff331ff9U, 0x28eff71410edf90fU, 0xed11f115f2e8e812U,
  0x80c16fc1ae00419U, 0x37acf1d806f6f6ffU, 0xcfeef11450df0d6U, 0xe42817da091afa07U,
  0xee1916f315eb2918U, 0x3cf6002801f5e2fdU, 0xb3a2bcc2216eff0U, 0x40f0de12e5dded0fU,
  0x3b14e4111909cf0cU, 0x260e472ffa0d2c40U, 0xf2f0f2d4063b3e02U, 0xc5fdeef2229c0295U,
  0x3cd8ee0708f1de17U, 0x1300fbf0260900e3U, 0x20a32fb30fc3f23U, 0xef101b07e5f9d420U,
  0xf0dd18d3e903f8U, 0xd515070500fd0af2U, 0x2c0af2e5fbf20305U, 0x24e2c5f502eee3edU,
  0xe916deddf8ce8106U, 0x25e6fe0218cbc31cU, 0xfc0d08f70ffbfeffU, 0x18eff01be8f7030eU,
  0xf7041a120f292912U, 0x1bf4ffde1adfe7eeU, 0x30e3de919f0f7c3U, 0x1317e70424fff9e0U,
  0x2b4e9b308ecd51bU, 0x12e8fa07f3be1ae5U, 0x3aecff272607f703U, 0xf63616cf2f332826U,
  0x11f50e02e9052913U, 0xf9f12606051010fcU, 0xed8ca20fbe3ede3U, 0x1419ec03e8110c0bU,
  0x19e91722f9eafd1bU, 0x19bc40e420f6f9dcU, 0xea04b2ed9fea41bcU, 0xdbf9caf702d5fe34U,
  0xf45001014ef2ec03U, 0x4c60eeffd2a08U, 0x487bf7f8f43aU, 0xfffff51efffff8b0U,
  0xfffffa5800000b24U, 0xfffffdf200001b76U, 0x2fe9dd00000f35U, 0xe0ee0bcf03f8ffe5U,
  0xc0ea11ea29e617f9U, 0xe005091d34ac0303U, 0x5fef5f2f6e6de10U, 0xe8cf17f5fad7f8f6U,
  0xeee3de0f34dc0f0fU, 0xf5e2de31f9ec33c9U, 0x320b0808e8ed2fbdU, 0xae9f91f01ed24e0U,
  0x3139fb24201bec08U, 0xf1d1071d2a2009e6U, 0xe3fc020325dc0d08U, 0xc14fc0ec82afe09U,
  0x8141a100a0d041dU, 0xad1362c6f8003bedU, 0xfbf9dbdefbdcd97fU, 0x6be8ee9b3461f41bU,
  0xf0bdf248c0b8bad6U, 0xe8f1d338d74e00e6U, 0xfe10c03e8f3d1e4U, 0x2b6136d0ed050f2bU,
  0xd19e2fa23efe029U, 0xe9e510d0e8e4bd16U, 0x29e9c9d6f3ebb8b6U, 0x16e406130cfce1faU,
  0xe1f10af411060203U, 0xec04cbf013f9f5fcU, 0xfef039d42af0021aU, 0xa0230bf803fe5030U,
  0x5091e0ed403edb3U, 0xf90c04151730101cU, 0xafe4f1d80d212ce9U, 0xfe0835d9e4d4e3cdU,
  0x8282c0111ede62eU, 0xbbd2d3f633f70e2aU, 0xdbebecc01e05273dU, 0xfa0015d1fcf0f6dfU,
  0xdb07ed0de8d5ffebU, 0xf6e9f7ebf7f70fe9U, 0x1eb10dde8c9e9c6U, 0xc0e50bf0f0caeb28U,
  0x3bead6151304e1fbU, 0x20c9f205ed0502e0U, 0xbfc4f31cd7eb07faU, 0x273440e8071d04ddU,
  0xedd929ccef05020fU, 0xeb6a1a02e8100af4U, 0x111527d7f9fe22c0U, 0x3dd31f308decf03U,
  0x20ef6e60af7d207U, 0xd9e1f2f8d5f6bfe0U, 0xdadf021502f61ec2U, 0xf3f4e3ec1fe91bU,
  0xe103f7160e100817U, 0xd300b91bf507110cU, 0x26de38cefeebd8e3U, 0xeaed1c31ebfb4aU,
  0xd4cfc840f9ce1de7U, 0xd7c50314e7dbe0fdU, 0xe6e2f5271ef4c0e8U, 0xf0fc1d07cce522e0U,
  0xf9f2e4441a331d08U, 0x16fd3c0b0ad7e900U, 0xc7e4ff002a2e0e3fU, 0xe457d264364714f3U,
  0x11040917d8ebe7deU, 0xd319083bff2934e9U, 0xf00ad9effae7f1eeU, 0xebf9150aeaeff206U,
  0xb5f42c33d5f0fab4U, 0x4e0aab4dffdee1eU, 0x1d3215022eecU, 0x233efffff2e0U,
  0x4fcb0000108dU, 0x1fd200001880U, 0xde0d09ef00000147U, 0xdbeb15060df6fd0bU,
  0x18f1051df50bdf0dU, 0xf40efff9f90af804U, 0x29cbee0201f2f81aU, 0xfc04000f327fe54dU,
  0xf608ebf92106fb13U, 0xb05f107fcfce50aU, 0x14f4def9000afaf0U, 0x21d3f0040a071404U,
  0xcc2408dcd6bcbff3U, 0x100e550f35ed32ffU, 0xe23cf720eb02e41dU, 0xbc48cfee02e31d0fU,
  0x10dce40341f8f29fU, 0xf70206140a03eb1fU, 0x3501fc2d29f12015U, 0xefc6e30cfb0ab1eeU,
  0xd19f3f50713d50cU, 0x2af6eff0e1fc1ae8U, 0xbdef10c701ee14efU, 0xf1c0f1f811f8fef0U,
  0x52c3ffc91bf811fbU, 0xfd07d7ec15b10a03U, 0x110aeb00f10f1205U, 0xff15f807022cf80cU,
  0xfad9b2edfde9ea03U, 0x36e8f1feeaf5e803U, 0xcbf60af613fef2f3U, 0xc90a4ddf40083dffU,
  0xfffd040cd2efdd10U, 0xc0d0aff0103f108U, 0x2409fa0b191558f9U, 0xf2f9e9040002e815U,
  0xfdfaf6f4ff120616U, 0x1ceffe0c15000402U, 0xfaf2f3f5e70501f6U, 0x12f3f70ce30ee612U,
  0x1e0eaf1f40af907U, 0x5f90210ee260bU, 0xebd09f020303e918U, 0x508efea101a1705U,
  0xef03e9ff1ede0505U, 0xf8fbe1f5101ce60eU, 0xbf608f8ef19f0f0U, 0xe61f03f50200e6fbU,
  0xe3fa35d92aeedc0fU, 0x3be90c03fffde7f9U, 0xf70cf407de07f3ddU, 0x2c15ca8306ff07fdU,
  0xf7e7f8e3541c95d8U, 0x130be80f03f117dbU, 0x36fbcc1cfd0a0012U, 0xef0f17fa0c1bd118U,
  0x1afcef050233ede3U, 0xf410e8f007f61e00U, 0xfe16130400f607e8U, 0x15f907f4040efc0bU,
  0xba3637dffa0afcf7U, 0xd8f514fa1b2ef2b9U, 0x1406e702fcf6fb1fU, 0xdaf84ae51b0fff17U,
  0xfdfbf9fd03142aefU, 0xe5fff90edd01f51fU, 0xf0603f92ee72714U, 0x23f4ff1b02e1eff0U,
  0x3112503ff1ae709U, 0xc95b1331fcfe05eeU, 0x220212fcd3ce435cU, 0xfd14211b0815e8e7U,
  0xfb04e20cdcf6d4ebU, 0xe03de00fa041918U, 0xfffff56dfd0bfe08U, 0x146500000b70U,
  0xd7efffff166U, 0x4f60000083dU, 0xcc11d1ecfffff0e3U, 0xf3f10b0afbfffcf0U,
  0x1705131815dfe2cfU, 0x130631041be7d413U, 0xe5da1713f1090d2eU, 0xe5f20e1b0406230eU,
  0xe2120ae506fbed2bU, 0xfeefe90dfff31a17U, 0xf3c70911180719f7U, 0xd61be100eff60023U,
  0xd05e3061431fef6U, 0x22fb10d8e8c82426U, 0x14ebfafde7ff18dfU, 0xfef80df8f6290731U,
  0xcaf1f2bdddc7170bU, 0x33c117e6c935eddbU, 0xcdc13e3faf41504U, 0x1bd4d8cccb470aeeU,
  0x1431fdf821f2d9d1U, 0x21f9260de4f1efd7U, 0x16fde106f327fc04U, 0x8ae30ef0c320827U,
  0x2c0715f6010811e2U, 0x282e1eddd8fc0bf5U, 0x6230018d3fbf7fdU, 0x3612f1f9f7d41eecU,
  0xddef11d5d463f0ecU, 0xd1ffed0beb470b11U, 0x1748eee301c613feU, 0x13f0fef7ead1c904U,
  0xcada18e01807e5ffU, 0xd506f5f9fa012ef4U, 0xf70fe8e9f9fbf513U, 0xeb100bfffdf3e71aU,
  0xf3dd0a1cebebe7c3U, 0xd4efeceaffde29f8U, 0xeadae41cfd39fff6U, 0xe307da0929d1d701U,
  0xfb0bf1eaf2f2f70aU, 0xfee828190effd9f1U, 0xec0af3ef05def9faU, 0xd1a05e0f3e71f06U,
  0xf903141bfeebe408U, 0xf50d0b0105faf2fdU, 0xd3e91304fce9120cU, 0xdfe1e5270f230c1aU,
  0xdfebe4dd04f5db22U, 0x21fbf017edc1c7d2U, 0xee0d0424f8f3ccf0U, 0xee28f81909f42121U,
  0xd260f11fdec11f8U, 0xd12101130ef21f01U, 0x10df5f5f2ed1d37U, 0xc00f120703eb120dU,
  0x3240215fa151615U, 0x33c447f0eef4bdecU, 0xede604fb1310deU, 0xe11af00607d42ac6U,
  0xe3e4ecf8edffe91dU, 0xdc1c0ad7e203f2f3U, 0xfaeae6da01d8dadaU, 0xfecdf6fbec0e2c2aU,
  0x3d840e31d4ecee1U, 0xe34cf8f808c5f6daU, 0x7f3633c808f5e402U, 0x10dcf21fe416e9edU,
  0x1cf816fc1a1f1af7U, 0xf624fef1fc06fb26U, 0x3f900f2fe0604f9U, 0xc51924fff8fbf6U,
  0xbabdc5f5eae128edU, 0xeb25f0f30a44e0f9U, 0x223d323b20aU, 0xfffff4b80000140bU,
  0xd3800001e84U, 0x29e6000006c2U, 0x4d71ae0fffffcbdU, 0xf0efe32507ced103U,
  0xe1e91afa0f18ece3U, 0xd38150ce9e4f20cU, 0xff575ad4f9f0c4f7U, 0xf70003f0e1bbf62dU,
  0xfdf8effff8000808U, 0x3dd07eef1f10b02U, 0xfcebe1f10006ded3U, 0xe11080222fcfafbU,
  0xfff6e90bede2f0fdU, 0xfd05fc17f0120ffbU, 0x131001f5fb01fa13U, 0x64ecbd09fdf6f5f0U,
  0xbffff0909da0f26U, 0xfcfeed0bfc00f313U, 0x4fbef10f201f4fdU, 0x1c0dfe1400e20312U,
  0x7eee9080bf60d12U, 0xf710fff70209021aU, 0xbfd18f90000120bU, 0x11f71317120cdcedU,
  0xc5ae4fe4e4f5db1aU, 0xe6ef15f9e5f18bccU, 0xeb33f70af0fbbc06U, 0xf7f2e8fccdf216e8U,
  0x1024f6e4ef041bf4U, 0xeff0ed0106f420f7U, 0x9f10305dffd1c0eU, 0x1408f70801ff0ffeU,
  0xf4f3f4f428f9f10eU, 0x90e02bfcf9e11706U, 0xe8f210f681d846c2U, 0xf702f50dfed8fc07U,
  0x1606ea0deff62701U, 0xf8f2ec10ebf809feU, 0xf007e5ef00fb36faU, 0x191e00fd0312e6fbU,
  0xfafa101503f20110U, 0x12e140eb0c0af908U, 0xf9412f0931e9e414U, 0xf5e515fc60ccccfdU,
  0xf33d1d0bdbf3eaf4U, 0xf219d6221df2f3ecU, 0xf900fcef1e011c1cU, 0x9fa11f3fdfc41feU,
  0xee06fbea0cf611edU, 0xf5e40817eedcedf4U, 0xe30600eedcf215e4U, 0xd7d482e50cf6fbefU,
  0x203fa17c6fcac2eU, 0xfce9f4e3e80d11eaU, 0xaf603f9f605f2e7U, 0x13eef91bf7f5faf4U,
  0xeffe9fdf11c07fbU, 0xe60ef4ed2207f004U, 0xf3bc27fce0fec3e6U, 0xfedc0202d717fdd6U,
  0xdec526d51e25f80dU, 0x12df190bf249c1ceU, 0xf7161f09001df0f5U, 0xf1ea31061c051bfdU,
  0xccdd3010612e003U, 0xf4f4061f0f261402U, 0xf7e8fef30e1b2f0eU, 0xeec71217ceeaf609U,
  0x2dfa1de5fb1a04e9U, 0x212314d9fef504edU, 0xf6f02a0b0b300ff2U, 0x18de0feee9011befU,
  0xf71b06f7ebe60207U, 0xe30a48d5fdea3b02U, 0x1c39ff1ddfe8U, 0x217affffefb4U,
  0xfffff4e200001e4cU, 0xc28000031d1U, 0x19080803ffffeeb5U, 0x13fa0104fd0af70dU,
  0xffed1f09ffeb11f8U, 0xf8f40701f6f300fdU, 0xaeffc0a1404f908U, 0xf5df060bf0ed0805U,
  0xe10b15fef1edf6f8U, 0xedebfbf8f70e17eaU, 0xf8f700f2f8000ffbU, 0x1c12f0d90000f2f5U,
  0xf3eb1215d7dde4e8U, 0xe2f620ec0142f0eeU, 0x1506d8f2e11efefaU, 0x2bf10bfbfedce9feU,
  0x3071cd70c00f6e6U, 0xd0ae8efea05dbfbU, 0xe7e20b1608e1e4ebU, 0xd41723d4061e12f0U,
  0xfc0c0bf5e2242f0cU, 0xfdf31be5f5010113U, 0x1e121505fcf30b00U, 0x9feff1c04e8fbf6U,
  0xfcff230801fb12fdU, 0x2000f0af0f60f01U, 0x8fc070a1dfcecf9U, 0x3f51a01ff2013f7U,
  0xf8ff000305ec06f1U, 0xf82efaf00ffde00dU, 0xfc060edafa0ae11eU, 0x12280d0a0005ebf7U,
  0xf3e6fb2600251103U, 0xe901f92c1bdd04dfU, 0xecd80df512f408f1U, 0xfde305f6000a03e3U,
  0x8fd07fb09f912e3U, 0xece1feec01ed0104U, 0x1af7f2fdef01d9fbU, 0xef02e92b07cee7e9U,
  0xf7f90827f8050bfbU, 0x2bece9e4e8fe090aU, 0xf7e9f4e403e8dbe7U, 0x18d7fd07fef2f3f8U,
  0xfcea02f5e8f9edf8U, 0x4f1e114180dee0bU, 0x10030e080e2e19eeU, 0xe219ff3d0deaed0fU,
  0xf00908291208fe16U, 0xf5ff0df209ef06fcU, 0xf8ea0ae80ee7150fU, 0xf7f6e7e8fbf0fdcaU,
  0xe6ce10090af90dedU, 0x18da34d5f0010de2U, 0x1aebf810fc4303fdU, 0x14e70f1d0104061cU,
  0xf010f917e2e1fdebU, 0x40509251101f628U, 0x5120cfbe6f3f205U, 0x16effe0908eff810U,
  0x5fffee8fccbf0d4U, 0xede9010d08ec16e7U, 0x8fa08f30aeb1de2U, 0xe9e917e526fb09ffU,
  0xeaf809f1f60609f9U, 0x1645d0e201d9f80cU, 0xb90e110f04edf701U, 0xd60af8fab3eecff5U,
  0x1b0be5e9164b36eeU, 0xdc02ff0801e5ebe5U, 0xf12c07f1fce2d9f4U, 0xff190af6ee071dd9U,
  0xecf8f0f5fae31fc7U, 0xf4fd041d7fc8efe2U, 0x2bcee41e3f2U, 0xfffff6f900000ecaU,
  0x154000000bb6U, 0xfdd0000069cU, 0x3145d324000017eeU, 0x1cf0dcece9321bd1U,
  0xcff8f6d73fed45e7U, 0xf97fe512c62f0fe5U, 0x1cf1cd4d132d405U, 0xecd8fbf2d4a9c9f2U,
  0x44c8e0fdf9511ffbU, 0x4821f7eb33d2e4f4U, 0x3520452b3df9dbdeU, 0x14335bd70801e20fU,
  0x11b51ef20a42bad3U, 0x16e40c38ab16fc1dU, 0x32d5073566d2e81bU, 0x1e12ff5543ba181dU,
  0xf1f11415c9ce1b06U, 0x11e908f14e482bf1U, 0xd61edcda3a0efa0dU, 0xfcc67cfc72a0c14U,
  0xfad3c1cb111727d5U, 0x572ee8fbd5ae5322U, 0x160f19e31107c9bbU, 0x42e0ee4acefacedaU,
  0xb9adbf5ecd8fac3U, 0x6f06eaa00c36aeU, 0xf4dfe86832ce1d40U, 0xda2619b9cd18ed07U,
  0xf92720f8fd02fd29U, 0xf544b39fc0d1ec01U, 0x5b10d5da14a6b8a7U, 0x8dbdc03d7ecd4f1U,
  0xb8d4eb14de2ae26bU, 0x29d7ddfff7c4ceb9U, 0xffffeb192ed7e30bU, 0x1d7300000777U,
  0xffffe737000001a6U, 0xffffed29000001bdU, 0x700ffffe179U, 0x6ec00001619U,
  0xc000000af4U, 0x2b4000018deU, 0xfe00f5ed00002aefU, 0x4f6031010082c22U,
  0xf92616f9f802ec40U, 0x18ef0714ebff1d18U, 0xf3f609f9e229da3cU, 0xdf1cf9f5ffe1d507U,
  0xdbf912f1e31cf109U, 0xf4f1fffa0a0d16efU, 0xeb1829e1f9f603feU, 0x1ed1faf5e9ee140eU,
  0xf8dee711f01609f9U, 0xdadee8d21500daffU, 0x14fff311da0feff5U, 0xe60c120f18ed0a18U,
  0x501f61128e70a13U, 0x3f0f2f900cd1619U, 0xf8e5ea0314021c4dU, 0xc804daf101e4da3fU,
  0xe41131eede34e01eU, 0x1bd201f517e80cfcU, 0x719ebf013dd00e6U, 0xfaf5ebe328052e08U,
  0x1df5d01d101718f2U, 0xe22701faffeb260cU, 0x140b16d819150610U, 0x1f1e1b0422e6361eU,
  0xff17e5de0df202f2U, 0x16fbfde622f5091cU, 0xf409dbec1004ea03U, 0xd805e2f1f1ee09feU,
  0x50bfd3df6f5dd02U, 0x1a0b0d1afbf51ff5U, 0xef5da451fe003eeU, 0xf117c90102fef0f8U,
  0xf931dd1130d5f60cU, 0xf60ee3f6f6f704deU, 0x13120d708fe080dU, 0xeefe908dee3e509U,
  0x30001403271aeb0dU, 0xf415e5fde20809f8U, 0x925450051f3f4faU, 0xfde2f6ce0beaceeeU,
  0xad2d27f66fdf1ebU, 0xc40be3c7faffdcf7U, 0xcbfd201ed43aec02U, 0xee23f800e61ed6e0U,
  0xf6f70208fe3bf708U, 0xb092432d4ff04c1U, 0x2adc0b09e447e4e3U, 0x13ef4024f7d80eeaU,
  0x1ddb001be7d0e1fcU, 0xe00f1a12dee40827U, 0x1ce5d23ac4eb010dU, 0xe31c1c15ff0cf5f2U,
  0xefeafa09d512f21fU, 0xf9fa180f0beeefebU, 0x813eff7f02c14U, 0x2adb1af2f6fcf704U,
  0xf1ee0ee9f3fe0e27U, 0xf9010c1307f3fd1aU, 0xea0d1edfecce12fdU, 0xf3f410fdf6cf04ddU,
  0x21001ce414ff390fU, 0x1fec1608f113eb14U, 0xe903ef0a0b052708U, 0xdeebe0060ffbdd10U,
  0xd117fef6e6fc06f9U, 0xe0804ff0addf7f0U, 0xfef221ea0ff94009U, 0x35ea07f50907e404U,
  0xed020ef3e4f4150cU, 0xf111dbf6fb17e829U, 0xfd27eec0ced71213U, 0xd6fb33dcb3f609f7U,
  0xe92d19cbe01a0bf5U, 0xe5e8ccda11f3052aU, 0xdf2919ab18e81d09U, 0xeeeb1eeef818fcfcU,
  0x3cb2103034c90b0cU, 0xfac60ed1afe0f227U, 0xd8d63315d41dfa08U, 0x1f7c3fbc0e6fd08U,
  0xcbce1c26fb27f918U, 0x26d9231ec2ecf015U, 0xcf414e1ad4d0821U, 0xfaae2712e8d82bcdU,
  0xf8fdede23508bdf8U, 0xf2f4361b0fe9f30dU, 0xffd2e81604e3d2d8U, 0xf1db2f09e105f9feU,
  0xe8e622f8fe113510U, 0xdafffffd070ce8f1U, 0xf2ebe50cd3f3e6edU, 0xfcf907fdfd17eef4U,
  0xfdf30510d621f8f5U, 0xea13f40b0ff5021dU, 0xf2fe26f0cf1dfef0U, 0x3f734060bf100faU,
  0x1df2f3f5e5cc0207U, 0x2df5121cef0f1c0cU, 0xf5f5e9ff0add0b24U, 0xe800e2f733f50afcU,
  0xde0c19eef0fbeee9U, 0xe82d28eee9e80817U, 0xb0400ece3f3f705U, 0x1d17fffbc5171cebU,
  0xe6f40eea21e608fdU, 0xea23eff7fbfe1112U, 0xe8dd1106eadd0303U, 0x12e0fde2fffe1e03U,
  0xd6e0e7f8e1f51616U, 0x23ddef01141953ceU, 0xeff9d6eae70ae746U, 0xec02fce80a0d2f01U,
  0xfbe718dbbf300610U, 0x16f751edd7ed0301U, 0xc9defed804ca1f06U, 0x26f5f417d31932e3U,
  0xf0fbcff123cbe63cU, 0xf1dd0df80606f1f4U, 0xc90dcdf7d6af1b0fU, 0xfa0eeec8ebdf1eU,
  0xf4f3f5f205fb0e02U, 0x3fce3f9cde40cedU, 0xcaece90d1bf60407U, 0x604ddf9eb01eaf8U,
  0xee142ce5e7ea0e20U, 0x17fb1acad20200e5U, 0xbae424f4170a10ffU, 0xf2f5c0ea143d16d7U,
  0xde0503e4fe11c4f3U, 0xcff0ce060c0e00e3U, 0x27fbf61defe8ddf0U, 0xec361bdad5f6f3f2U,
  0xf0071506ef26e0e7U, 0xe3feca0921ecefdaU, 0x8111bdee330e2eaU, 0xf00edfbcedd23d7U,
  0x10d6f54ff53109f8U, 0xf0f9dafaafecdaU, 0xf2f2ed04eafbdef1U, 0xf7fe15e41dfe04d5U,
  0xf610ebff090dfad7U, 0x4f81007ccc02ec4U, 0xbcefd90c10f40cc6U, 0xe0e5d504f7c5d7ebU,
  0xfc11edeeddd4f82cU, 0xeddd01d71ff8f3d8U, 0xefefcce4bef308f2U, 0xf80009f1090915edU,
  0xceddecbe3e027e2U, 0xe107e61ae9d4fefeU, 0x70fdfdafc031219U, 0x2be815ec4a25e5c8U,
  0xda0ca513d6fe0ce6U, 0x30ddcfbcede0ad2U, 0xcafff3263de006daU, 0xf90bee0b003334f2U,
  0x1ccede1ed63fdb2aU, 0x3e439fb1e1dfec0U, 0xd6fce841e80aea05U, 0x141ae407f1ee3acfU,
  0xbfafa0e390633dfU, 0x27eb0a0ff232db04U, 0xd5dc23efdd16eef3U, 0xfa0a0718e2de060aU,
  0xd80efff616e70bf9U, 0x15e9f70bedf0040bU, 0x35fa0b040afd042cU, 0x2d1dcf7061fee02U,
  0xdcf21cdcffeacd11U, 0x6fef0e2f5001715U, 0xfd0f26ef11f900edU, 0xc04091adab944fbU,
  0x3f2ff0322f0ee2bU, 0x4e0dafaf1fdeb02U, 0xd51d1fe00afd0fdcU, 0xf71704f1f507eb17U,
  0x162608fad51610d9U, 0x10e52a08e5e9ff08U, 0xdc11f715121bdcfeU, 0x30f51cd0c1dcfde4U,
  0xf01f36031cf901e6U, 0x1c120bf0f0332fdcU, 0x12010fe120abc3faU, 0xf20f35f6e6110204U,
  0x15eb1e372ae3d91dU, 0x48d5dfe0bacbf0f9U, 0xe5012c01020ce91cU, 0x2f6a902dcfe03f4U,
  0x19ebf307061ba327U, 0x2f6fcfa3bbcfd13U, 0x1604f7101a16082fU, 0xaeef7decdc1ffedU,
  0x34181df9520b16fbU, 0xe611dd01f7010106U, 0x3ce9ef1e1df4d014U, 0xd3f6db071601eaf4U,
  0x43daf8e30106031eU, 0xcde6c7cc1a3ef302U, 0x3fabcfff523d7c0U, 0xda00e80dbbdd49d9U,
  0xdafdf51cf530e1f9U, 0x24ebf1fcddfef3f7U, 0x3ad3fdf0da18f62eU, 0xdbf2b4d7015cb90dU,
  0x201902bf8c8ddd3U, 0xf120d5f1c9ef30ddU, 0xe3ffc71be8f5beeaU, 0xf1f01214cddaf4f8U,
  0x4b8e3f306ef2614U, 0xc2da001a2118dff9U, 0xf43ea00a03d4d91fU, 0xda35cbf8d6042b0eU,
  0xeb10e5d90eebed0dU, 0xe7e5fefee111f4f5U, 0xf6cbdd220af6f7ebU, 0xd154118ffdd3502U,
  0x16f8ef0ef20625f7U, 0x18f03910d5dad90aU, 0xfdf7e71b09fa04d6U, 0x1608c705ebf51317U,
  0xfefc06efe7110002U, 0xfbf7102300f832f3U, 0xb02f605eb001ff3U, 0x15f2250fe7e9fd2dU,
  0xfae703f1effdd7bdU, 0x5f1210ec6ec1200U, 0xe3fb03def0e81b10U, 0xe3eb070f17141ef9U,
  0x7ee13edc4f535fdU, 0x20e431fa2112ec17U, 0xfffb25e5db0be9efU, 0x2cc53c1be812f601U,
  0x392419f716e72818U, 0xdfdef105d25ca513U, 0x3e5eae41ff603fcU, 0xb0f2e4f820f314ceU,
  0x906ece523e7fad4U, 0xf0f3fddcedfe2cfcU, 0x38200df928180610U, 0xe4f4f608f758bc09U,
  0xf00500dd050fee0fU, 0xbddbe8013df3e9deU, 0x53e140bfafcebf0U, 0xdecf4f0e5e243f5U,
  0x3cf0010f22e3f027U, 0xf603000cf542d3c4U, 0xeed7cde21bf2e1faU, 0xc5e3f8e53feae313U,
  0xf61fed13f8f5f9f7U, 0x12fdfbe4c7e634ebU, 0xd516f1daf911f7f4U, 0xfae6fb37d7e9c230U,
  0x3ef4ebd205f754U, 0xbfe5ed0cf0c9e10dU, 0x729f9e8d7e63613U, 0xf3e71eeafa07f6fcU,
  0xd613f42618ee2002U, 0xfae8f317e8cfe117U, 0x15f30013df080608U, 0x6e9f6e137ccd5eaU,
  0x7f60712bb26f9f9U, 0x16d914ee20e0d5f0U, 0xba0f09f0e837ec10U, 0x4ccdb0fedf6e709U,
  0xde010bd5cd0ccd05U, 0x37cdeed940f302fdU, 0xb52e23dfe925d8fdU, 0xef0fce4000edce0U,
  0xdefc19ef1ae904U, 0x10fa25f7d505fee2U, 0x2007df00111df9dfU, 0xe92136e7fbee23f1U,
  0xf1000a093cd410c3U, 0x2b0e10f7da0e10d8U, 0xf6e3ef0e05f6def0U, 0x7db0aebd7d606ffU,
  0xd3f212fae7fee6U, 0xe1fa28f9d0bb1400U, 0xf1cdfe2504c5f4dcU, 0x210229fae00a18faU,
  0xe3dcf9f4e8d3ea0eU, 0xf6d5faf111fcf102U, 0xd3dceeeef61013f3U, 0xe1f40df0fdfbfe08U,
  0xccdb1bf6ef02e3f5U, 0x1acb0af30d16d6edU, 0xfffffb90de04db37U, 0xfffff77dffffeeabU,
  0x3f9fffff6e0U, 0x145c000011ffU, 0x1cfc00001b1dU, 0xffffe991fffffcc7U,
  0xfffff4eb000025abU, 0x1a40fffff802U, 0xfcfc291c000018fdU, 0xf43fdfe1fa0b1a11U,
  0xd2e7dc43e8163cf8U, 0xa29f11807d1bf18U, 0xedf9e42afe2f162eU, 0xc03fc5b15edd62cU,
  0x26b5e00dd21b1209U, 0x50c905fad3151ad0U, 0xf00120741300f428U, 0xeac8e118de918dd0U,
  0xfe0de9da270ce60cU, 0xaff8f103f8f01924U, 0xf06f2ae5e857efe1U, 0x1d05aa143607ebf1U,
  0xfc12f11312e5c1e5U, 0xe6d5f6c008af33d5U, 0xe20637fafa0218dcU, 0x100f9c93a3105f1U,
  0xf71b04fb1e16e9b1U, 0xd4df35143d0037ebU, 0xd3fdfbf717c53ceeU, 0x9020c31d5c50bd9U,
  0xf20a11dfd9fffaf3U, 0xd4021ec4fd07ed01U, 0x2be2e6fef9f2f005U, 0xfcf9ebc6310e0731U,
  0xe80205d6274327e9U, 0xef1e01d2aecd4feU, 0x361906380528252bU, 0xe5f9dbf912f70c02U,
  0xf6d02234fd1a2bfaU, 0xfddb10ef0504d8U, 0x1614e8ce1704ebf8U, 0x17f7c9b78938eebfU,
  0xf31a01cd16051aeaU, 0x151bee28f6ecf10bU, 0x110fc2c910ccf41fU, 0x58fcde03faf3d6e9U,
  0xfaf70ef2f9b637ddU, 0xfbd6fe131bfc1bf2U, 0xd5d2d3fdd5bc07f1U, 0xe5ef3b0c120f201fU,
  0xe820d80001f01311U, 0x261f1de2fd23feeaU, 0xf023050c18152104U, 0xdd80dd521d9040dU,
  0x11f5e701260c2b32U, 0xf806f5f201312009U, 0xe518ee2b0205a5f8U, 0x1fca212e7beacac9U,
  0x79945df7be38ac6U, 0xd6a5414d6c46412eU, 0x14d5ed46d0092badU, 0xa04be925ddecdbcfU,
  0x8121bdeeebc3f20cU, 0xf20a0ff03e87b600U, 0x3accd92d2c00f2e5U, 0xca44071006efec1aU,
  0x31b0fdbe9eafdd8U, 0x4fd6c5fdcfeccfebU, 0x504f6f75703e914U, 0xf9bfdbf66f0c1514U,
  0xf8ff0f0ae01003f0U, 0xf213cc0e101c0f0aU, 0x2f5ff00909e3U, 0x2a8b00003293U,
  0x54fe00002ab8U, 0xfffffa3800002243U, 0xe10bfbe300001666U, 0xeef5f5f2e412fdfdU,
  0xf11af9ecfffa03fcU, 0xef20f810ce11f1e7U, 0x12fedf13fbeefb03U, 0xee18e7043ec31611U,
  0xe20701f4f9ffdefdU, 0xf9f2f3f1f005f7f0U, 0xd409f3d90ee7fe0aU, 0xb18ffffe815d4f3U,
  0x423ef14fe1e0006U, 0x1f17f10ff81b0deeU, 0x22fef91f02fb2cfaU, 0x2218e72407fefb10U,
  0x2a03f41af7f904fcU, 0x1c09ff14faed28eeU, 0x1220ff1e0201fb0fU, 0x15030618ec080405U,
  0xe30407f0f8f821f9U, 0x2fa20effdf2d120U, 0xeb030813360dd10eU, 0xe90c050113fce30cU,
  0x12ff1b1320ebf40bU, 0xfaf9fe127ff510f2U, 0xff1400ed2708fef4U, 0x1205f80fe5eefc1dU,
  0xfc10ffed31e104fbU, 0xfdff0c030d01fcfcU, 0x8ea04f7f0fd04f9U, 0xf8f112fe12f10b0aU,
  0xf8f6f40d0dfde500U, 0x17f0f3f4ecf514f5U, 0xe7f503f519ef13fdU, 0x1f70910f802e5f3U,
  0x25e6fc09edf4fc0fU, 0xfaf9020019e30d08U, 0xf8f5160efbfde703U, 0x11f11310fffb000cU,
  0xfcf1fc1739fa161cU, 0xebfd0dfc21f7f305U, 0xafcfffdf9f00116U, 0xf3fdff0015f6fd1fU,
  0x9fa0514f5fed700U, 0x20fcfb0ffaebf129U, 0xf7fcfdf125d7051dU, 0x91708fcfdfae506U,
  0x42cff14fa18f510U, 0xf20071ef30df10bU, 0x9f70c04fb040708U, 0xb1ffd160210e50dU,
  0x1f091629ee06e4ffU, 0x7f409fbee00190bU, 0xf90b0710ff00e703U, 0x1706161bed0de1fdU,
  0x1d000007eefc0f07U, 0x1afd040a13ff13f8U, 0x20202fe231a1ae5U, 0x5fbfc0a010c04e6U,
  0x11080cfd0a05f8dcU, 0xafb0df90f1109d1U, 0xf90ae7f513050ddaU, 0xf50d0200e0fffee6U,
  0x1ea01fbf80bf5d9U, 0xfbf717f915f206ebU, 0xe101f8f2e504f6e6U, 0x13100f0ccaeaeaecU,
  0x206f000cbf3f0edU, 0xaf4e714c7d2f6e5U, 0xcfefafdd9c60ac3U, 0xf7fff4fdd0e6f5d8U,
  0xf203f5fbe6f4e7f2U, 0x5ef0e05d4f7e6e2U, 0xfbf80802fdf0ebddU, 0x3f002fc11f1fefcU,
  0xf205fc0322faf6f5U, 0xd00fa080402f4efU, 0x18effa0a1af712fcU, 0xfdfefc1637fa13e7U,
  0xf412feef1902f7e6U, 0x4fbf4f9f505f800U, 0xfd0af70012f2f6f6U, 0xf6fefdecf7faf3f4U,
  0x5080904f003f700U, 0x10050715fffe0a00U, 0xfaf707f400f80a10U, 0x16040c110603f605U,
  0x22fcfe1b0a0802ffU, 0xf1f404ef00fa1510U, 0x10fff615f9f3f61aU, 0x16f3fe1afb01110aU,
  0xf8f3f809fdf60e11U, 0x1fb04f2fbe60b09U, 0x3f409ffefe50eecU, 0x7d9eefaf70ef7U,
  0xe2ffe9f5ec0108edU, 0xf211ece0eee80debU, 0xf817ed0ae405e3f3U, 0xe207ed00edef0ae7U,
  0xf9fcfee6ec12ddU, 0xff0efefdfe07efedU, 0x141eeffc011b0df0U, 0xfb0af203e925faf0U,
  0x114f8070007faedU, 0x43ff5e7060c0fe8U, 0xfe1603ffde27f5e1U, 0xfcf8f4f8f710f5eaU,
  0x1229fbf6f40706f3U, 0x318f602ec18eaf7U, 0xf5001108f5f8ebecU, 0x7f601ff050c03eaU,
  0xfe01fb0c15090403U, 0x402070b05fefff7U, 0x8fff904170607e9U, 0xdf209130a05faU,
  0x10eb0319f5fdf8f6U, 0x22f7ff1324f914efU, 0xa0af80f1ef717feU, 0xfd01fdfffafef7fbU,
  0xf8f9030404f50b13U, 0xafc040311ec161dU, 0xfbf2f90b1bf4040bU, 0x8f20c0103e8fe20U,
  0xf5fbf8f012e21729U, 0x2f40afaf1fe27U, 0x700fe08f7f4fb15U, 0xf5f504e904ed061dU,
  0xc08f5fefbf4f312U, 0x90febf7f1ef1affU, 0x1109ff04d4e517f4U, 0x8fbea04eff518f6U,
  0xe01e9fce7ef13f3U, 0x7fe00fcd7e50cfdU, 0x10f9f11ff7f702fbU, 0x606ef09f0f41505U,
  0x8edfb02e5f41cfeU, 0x5120e1705fa14ffU, 0x11080319f807f3ecU, 0x1c160e12f80a17f5U,
  0xbf71115e11408f4U, 0x1f0112190ffff0dfU, 0x23f50a16f5f0ffe2U, 0x1ee05ffec08f6f8U,
  0x2fc030fff0be406U, 0xcfe1e16ee07fff8U, 0xac4020a02f8U, 0xfffffd1dfffff2eaU,
  0xfffffb6e00000142U, 0xcefffff6f7U, 0x1ee000012feU, 0xb98fffff820U,
  0xfffffaa700000165U, 0x8dfffffb7eU, 0xf7230642fffff9cdU, 0xeee2551f0428e7fdU,
  0xe858f6210b283d25U, 0xca06f34515df2a1cU, 0xe4eb0b3afac7f7d8U, 0x2001d6fb54f8b2e8U,
  0x32311d08360bedfeU, 0xf2062a5a325a1011U, 0x2dd725dffb00f1cdU, 0x58e9eaec1e5cc1d9U,
  0xf4112edd0ccefceU, 0xded23b1d2132ebc4U, 0xd03606ee1cf2c80aU, 0xf1d5223a013d1508U,
  0xd9fb026e1ac3cb35U, 0xd2bbc21b19f122a6U, 0xf1ea1cf302cd36d0U, 0xde142934e80ef729U,
  0xba33112d19ff1130U, 0x17b4e9cee4c2edd4U, 0x2b23193008b5a756U, 0xdedd2c2306d2051bU,
  0xfefd040bc20040e7U, 0xf3dbf81dc6db0b23U, 0x56c1e7efec1c581aU, 0x1b041317effce1abU,
  0xeb090fc301470079U, 0x4bde0625d91718fdU, 0x2ccb1159eacabadfU, 0xd41415fe48d2eeefU,
  0xfc14eaed15fbe1beU, 0xe6cdc2f59f0f28cbU, 0xeb42f20af8cdfb6fU, 0x52f7e743100fe10fU,
  0xfdf3d7e127bfd9e2U, 0x2c37f2d833080cecU, 0xca524cfdf016eedbU, 0x12218431005c01dU,
  0xd3f9f3c2b4cd5709U, 0xe5fb543a302cfc2bU, 0x309deefe50cbcc13U, 0xe9d144dc4cbbe329U,
  0xe710f2335c3d1ce3U, 0x10a034ce44708f2U, 0xefe1fc20efc9a27fU, 0xecfd56bf0728bbeeU,
  0xd3f2b2dc26846f5U, 0xeceefb17a0fd090fU, 0x2021bd7f6d317c0U, 0xe716e6efff1c09U,
  0xedf02fe5011104e8U, 0x15dfd02f2cf5dec3U, 0xa25d1fcdf44d3efU, 0xe8f5211430da1e06U,
  0xffedc2106c3f5ffU, 0x2fcf517f30ce50bU, 0xfcf022d8fee90f05U, 0xf3f21cebe5f3200dU,
  0x18ef10fe04ebf807U, 0xf1ee1bee250e37f2U, 0xff05dc252f080214U, 0xf3fbeafffae2d5f0U,
  0x17fbf914eff0e420U, 0xf3edd30f0e08c1d8U, 0xa0e4518f209d7d6U, 0x14f104f4f8fb1c16U,
  0xfc1af3df12fbf81cU, 0x1cf4ec0c2a2911d5U, 0xf4f234ff23e6c4c6U, 0xf8f91dedf8092a14U,
  0xa05ce0403000809U, 0x204edf9f4eaef10U, 0xdffd811e7e70b00U, 0xf015040b05fce42dU,
  0xe8021904fffb0efdU, 0x5f80efdfaed2618U, 0x22e0d4142deb131eU, 0xf319de0f1ffeff03U,
  0xfafac4f60720ffd3U, 0xf8f5fcecf3f7dd13U, 0xf8c5e8c8e5f11805U, 0xe0005e71505f9e5U,
  0x17271c26f808c3dbU, 0xdf08e00c6227f608U, 0x9e736021235d3f5U, 0x27fe15f0e80c2507U,
  0x362229fc290e0410U, 0x14fff50d180b1916U, 0xf8e9cf31050a2322U, 0xdbf2ecea02faf9feU,
  0xf4c92cff09f5fed5U, 0x29f6fe10fcfc0edfU, 0xfae7d005020fe411U, 0x308f9f6e00dd608U,
  0x181b2d26f1f700f4U, 0xfd10ec13e31af435U, 0xfffff73617fff825U, 0xfffffd67fffffe52U,
  0x374fffff539U, 0xfffffec9fffffe05U, 0xfffffc0400000085U, 0xfffffad500000633U,
  0x29cfffffed5U, 0xfffffd5a0000050bU, 0xc50000099aU, 0xfffff8e600000337U,
  0xfffffd8ffffffe5aU, 0xffffff1f000000deU, 0xfffffde0ffffffafU, 0x23afffffd81U,
  0xffffff2f000003d9U, 0x813fffffa0eU, 0xfffff6ec0000065dU, 0xfffffa4100000240U,
  0x2040000082dU, 0x2e7fffffa47U, 0x7df00000bf0U, 0xfffff94cfffff59aU,
  0x6c0fffff704U, 0x9acfffffc22U, 0x71c17dcfffff90cU, 0xed1648f9ec0be30cU,
  0x111a48f1c9bd1fc3U, 0x1c18ebda0df01709U, 0xff00e1dfe70fe4deU, 0xe4ee0ae709fd000eU,
  0xed1c240e0e1f0309U, 0x17082025e7f00ff7U, 0x1916f9f3eeeafa1aU, 0x252422de30ed15f4U,
  0xbf512f70632d3deU, 0xede71cd51602fcdaU, 0xcaf848e81100020eU, 0xdbfecf27e6cde2f6U,
  0x12082404beb5a7a8U, 0xdc2a132bbf145a50U, 0x1b2cea2d132318e4U, 0xde35063938e41ae7U,
  0xdb2e60df16141308U, 0x87c388972cbf4faeU, 0xf83dde4ce57f2063U, 0xc9de46dee77d04dfU,
  0x2125f5d750a4e74dU, 0x39bcd070dd48aefbU, 0xee57096ab4e3f0b9U, 0xb39523db8bd14ce4U,
  0x12e69b92ad48b8abU, 0x3304013ea9155d2dU, 0x5533ed04b9f6fbb6U, 0xb1329c174f2bd8fbU,
  0xe0fe0c1b4f43ac28U, 0x1e1b1319df090f0eU, 0x2ff9021c1fe931f3U, 0xf0fbe3fc16131e05U,
  0x1cd309ef1d22ded8U, 0x9f2ecd5ea20010dU, 0xffffff3c0af20d2eU, 0xfffffcb80000037fU,
  0x7e4ffffffddU, 0x18dfffff4f4U, 0xcbe000005ceU, 0xfffff8e2fffff8d7U,
  0xcec11bd0000023eU, 0xedd48fd6e653d9ccU, 0xb2009b0d090f10bcU, 0x21d8f5e0d24e3a22U,
  0x4bdc02d70937d8e0U, 0xddd5f8dd5605e20eU, 0x1645f5e6dd2cf517U, 0x15c942e018db0efeU,
  0xe3c0e93849edee23U, 0x11e03ddcc30ee8ebU, 0x2ea7c3050f47b4cfU, 0xfcce3eeb3f12d3e9U,
  0x2bdaf0f8eb21f6ffU, 0x48cdcece0419d709U, 0xdac4d8e520f4cbf2U, 0x151101e5e014dd04U,
  0x3fdbdbd6f217df07U, 0xddca0fde34f2f02aU, 0xefaff14dd1bd9fcU, 0xf4ea08b82a21d735U,
  0xeaac0215de2fdefaU, 0xd90d061bf90de624U, 0xd54909380401343bU, 0xc6802f3b8fe25eeU,
  0x4029f30ce9e916d4U, 0xeb33207bddfe122dU, 0x95af106bebf2811U, 0xf419ce3818da21f4U,
  0xd73e0a18ece03bffU, 0x547fc07b8f60dc9U, 0xfb0fbf1a09ecff0cU, 0x380fe5c4f0c5e32eU,
  0x9697fbe102f70808U, 0x1ae3f8e781eac715U, 0x41c405e82228ced8U, 0xf1f916e83e4ccd07U,
  0x6d4211eff56U, 0xffffffa10000024cU, 0x90600000520U, 0x22a0000043dU,
  0xfffffca8000000cdU, 0x133a00000055U, 0x1fd0605fffffe5cU, 0x3f9f2f3f70c0407U,
  0xfb0a0b05fc0e03feU, 0x1ff0bfffeff0001U, 0x150d04fb0003fe12U, 0xe5fc0e08f9040403U,
  0xdf1ceff40707f3f5U, 0x20ff5c5d3e80709U, 0xfdfc121d04f612fcU, 0x90a02f91313f903U,
  0xfcfaeff9ecf90405U, 0xef04030703fb0d03U, 0xbf712fef608fbf2U, 0xf04fa0001fd0b0eU,
  0xf8fd050902f80211U, 0xff00010009fdfbfcU, 0xfb04fdfdfa050108U, 0x301050911051108U,
  0x800060d11f90105U, 0xc07f8fbecfc0805U, 0xd2f71223042f1708U, 0x80419fcf436eedaU,
  0x190f04fc01040f17U, 0xe705130e0c041209U, 0x200080b0300eef0U, 0xb15fbe7fb09040cU,
  0x4060d0c08021405U, 0xf70701fc160c02fbU, 0xfe0e0401090002fcU, 0xfefeff0a04030905U,
  0xfafcf6000cff04f7U, 0xf90c060b0d02fcf7U, 0xfefffafff8040003U, 0xfbe90ddf001005f0U,
  0xfad7ceb1df12223cU, 0x4000504fc07fe05U, 0xfe04f7fefd0804fcU, 0xfa0702f2fbfffbfbU,
  0xef05010702fd0404U, 0xfd02f5fe06fef4efU, 0xfefefdfe03f9f9U, 0xeb08f907ff04fef7U,
  0xfa0002fafef9fff7U, 0xf704fffbf801fcfdU, 0xeeff0102030800f8U, 0x60102f90603f5f5U,
  0xfef5f9f8f5fffa08U, 0xe4bd109f81f4c403U, 0x20812f6b25d1fc2U, 0x1200f8fdec001305U,
  0xf0060104010002f7U, 0xfdffff0107fff9f8U, 0xf604fdf2f8fdfafdU, 0xf003101101060ef6U,
  0xfc0bfaf60b06f9efU, 0x1170e0c1efe08fbU, 0x9fb0c05fdfe0103U, 0x8ff00000a0f01feU,
  0x20203060900fef3U, 0x10040206fdfbf8fdU, 0x6220603f90f1508U, 0xf8eadadddd0efd07U,
  0xe04fff9fc0302faU, 0x204fcff0309090aU, 0xfe0201fefdfef3feU, 0xf20807fefcfcff03U,
  0xfbf6fe0a010401eeU, 0xfaf7fcfa0503fefaU, 0x10b1101010d0df7U, 0x5f8030105f70004U,
  0xf60a050b1002f602U, 0x1bfbff04fcf90101U, 0xff020404f8060e12U, 0x2fb0701f906fe07U,
  0xfe1bc2e4c2f4c506U, 0x401fd0aeec6002dU, 0xf5030d0c110502f6U, 0xfd01fe05fd04fbfeU,
  0xfcfff8f9fd03f5f5U, 0xf6fc0502fa04f603U, 0xfafdf8f705f6fe05U, 0xfd0006f80102fef5U,
  0xf709090c0bfbfa02U, 0x1101fffdfb0b04f9U, 0xf7fefafb00fd18fbU, 0x10d0b06fff9f9f5U,
  0x3060a060813fcU, 0xe5e9dd05fd000504U, 0xa0f16253f11fef6U, 0xefcfcfdfa000106U,
  0x81314f7f802020bU, 0xffefdf2f0041012U, 0xfa010a0507000505U, 0xfdf80a00fff6fdU,
  0xff0e08070300fa05U, 0xfd0af6fffb080a06U, 0xf00b03effe0efef9U, 0xf832080802fdf906U,
  0xe502121601060ef9U, 0x512070b060afae7U, 0xfffc03010211f602U, 0xd9d5d9110eaa0407U,
  0xc090ff9f635e5edU, 0x120500f9e100060bU, 0x3080309020d0609U, 0xfcecf8080cf9060dU,
  0xf806eb02f0f305fcU, 0xf209fc09feff02fbU, 0xfb08f9fb0cf4feeeU, 0xfa160a0a14ff0309U,
  0xfafcfb02f9020203U, 0xfc03eff303fb0306U, 0xec07080b13fdf9f7U, 0x9060503ff04fb0cU,
  0xf81e1c21fb1803feU, 0x2923e7d4df191d2fU, 0xfbf407f0fffbU, 0xfcfafc0b0400fe00U,
  0x10107fffefff5feU, 0xfd05fd00fe05fc02U, 0x8fbf30504fdf403U, 0xf6eff002f0f7f4fcU,
  0xfbff010afefe07fdU, 0xfbfd030601040afbU, 0xf70806070f09020aU, 0x17fe0207fc05fc05U,
  0xfb030af9f7110d07U, 0x1000103f3fa0a0fU, 0x35e5edefe9d7e6fdU, 0xf9fefb05eb032212U,
  0xfd0b161118f8f704U, 0xfcfc0103ff0605fcU, 0xfd0301f603fcfeffU, 0xfdf7080507f802fdU,
  0xbfcfc02fef90000U, 0xa080b06ff091106U, 0xf7fbfa050406fbU, 0xf400ff08f80e0ffbU,
  0xf302eef70dfc0803U, 0xf50b00020d02fffcU, 0xe8f41013120b0508U, 0x7df26180ffafaf5U,
  0xf200e5cfbf01dd03U, 0xafaf7f3f805fe04U, 0x9f60e06fa04000cU, 0xfd09fc01fe0104ffU,
  0xf0f608ff050309ffU, 0xfdf7080808f9fbU, 0x2f7ff020507f6f2U, 0xeefd000504f7fcf3U,
  0x3f70600f8fbfbf6U, 0xf10401f0ff05fe06U, 0xfdf704fb10fd06faU, 0xbf4f4f710f8fef8U,
  0x7f3f10a0602f909U, 0xa06af19ad05c8e9U, 0xafc0afb01f419d3U, 0xfffef9fbf2030c06U,
  0x4fb0e0200090102U, 0xf401ff04010c01f2U, 0x211f2edf7fe0609U, 0xf102030f03030efaU,
  0xadf0bfef4f5U, 0xa2900000592U, 0xfffffdc400001592U, 0xfffffa840000035eU,
  0xfffffdd70000036cU, 0x881fffffafcU, 0xfb039da700000b95U, 0xf8e3e602f1b7f001U,
  0xfdf108fdf618b0e8U, 0xdde40f1af4f00101U, 0xf2063209f5380606U, 0x5d7c7fa0d08f5c2U,
  0xddddcedef4d9ebf5U, 0xfce6f9dcf8c30dedU, 0xd502f503e0f00016U, 0xdfbeff6fe0547c8U,
  0xfbfff5e5f2e8cd15U, 0xd9df070ad4f1fdebU, 0xfceffd13eff3e3edU, 0x15e930c1edfeefe4U,
  0xfced13d813d2f807U, 0xff06c3da0ee1d7e8U, 0xdb18d9f1fae0ed1aU, 0xf9f6fd0307e42b1bU,
  0x23c5bb0df5e9f2f0U, 0xfaf8cce9e4d20cd1U, 0xe2e80d19ec2fdcf9U, 0x1bdd4515f1e7e100U,
  0x7d3ddd600cdedfeU, 0x6d1ecf00fd8cce8U, 0xf102ec021f09d6eeU, 0x1e8fdd5fbecf90aU,
  0x1ceefdfd1dc83132U, 0xece303071ef2dfefU, 0xfb1714cf1c003807U, 0xf32ceaeb0ff72b0dU,
  0x1201eb1507e83cd1U, 0xea02300cdae414faU, 0x1de22a020017c7d2U, 0x2f5e2fde41d1220U,
  0x1b132ed0fa2625d1U, 0xf907090800edd5edU, 0xe7d5e3f0f41040f9U, 0xf700f5f608d7ed12U,
  0xead222dffdeadee9U, 0xd5df1401ff24e1eaU, 0xb17f1e6050600f1U, 0xf2ed07e9fbf1251aU,
  0xc80fe4ef02fff0ffU, 0xe20307d6f2fa16d6U, 0xf7e60ded13de200dU, 0xedea4d2211dc00dbU,
  0xdb07e90001dcf7e4U, 0xe5dfede5fd141a13U, 0x1be15321d70aece5U, 0x2f4fef21cdce1dbU,
  0x1ecde0f4f5df2814U, 0xfa281f27f1fff6d2U, 0xf7fbfc180a200cddU, 0x28d709011eeb4621U,
  0x39dfafef2cf0eaf7U, 0xdd1d801def412f6U, 0xf5e01bf7f923c3e9U, 0x2be8312ef1e6ed0cU,
  0x1cee0af31fe6ecf0U, 0xd5cc0add21daa8c1U, 0x1ef3b8f6f1e2dddcU, 0xfbc50be5fcf6e403U,
  0x34e405e51cf41bfeU, 0x4d98cbdfcf6f3f3U, 0x3f5f6e3f0b1d9f2U, 0xeef0f8f1e4e1c5d2U,
  0xfcc0f309e9d70bdcU, 0xf3f5e8cb24e8fdebU, 0xfeed07f005e82a1cU, 0xe212e11e0405d3f0U,
  0xf804fef6fcf109e9U, 0xfaf7f0ee19dd3a18U, 0x6ed332e1621f6c6U, 0x800d2fcf8cbecf7U,
  0xe4f401d7e6f5f91cU, 0x1de34a4ce12a19f2U, 0xbfaeed4fef80ceaU, 0xfbf5f0ffecfb4741U,
  0x140f1719e920dfe6U, 0xe31d171505fb23e1U, 0x15ed0aff32f43b36U, 0xe20beb191713eddbU,
  0x6f7ed09faef1dfcU, 0x11e6eadf04f61a15U, 0xe829fdf3f70ce8f3U, 0x1a05ee1a08e6f71dU,
  0x14d6fde3ea130821U, 0xfce3334201f7f906U, 0x700e3f114d9f8d5U, 0x9f21019f440ecfbU,
  0x60b1717f804f324U, 0x2faec1013e2e905U, 0x12e5e6f107011f3dU, 0xe729f8ef01f6f2ddU,
  0xfc060e2d1dec0a22U, 0x1df4fe0927e70306U, 0xe1220e2a27f1c5e5U, 0xc1415fee0f9effeU,
  0x427f2f524060826U, 0x390d341c0b0c0bfbU, 0x700d7ef08e9f704U, 0xf3faec0cf7401819U,
  0x110e22f901290326U, 0xfa2227f6291411d2U, 0x1ed3e01f240c6803U, 0xa1dfaf1e517e007U,
  0xe215023bfe03fc00U, 0xdf312def50af30cU, 0xe0ffdbe9020af6f0U, 0x9f7e21903f3fe0bU,
  0xf8ffe9fdf715021cU, 0xfafe2525f3f422f0U, 0xea153022eb330ef1U, 0xf7c60317e5f7e6e0U,
  0xf7f8e9f8f803dfeeU, 0xe7061201f704f2f3U, 0xe3331307dff8fd11U, 0x1edffe4f01855e7U,
  0xf6f60be402ece5fbU, 0xf0ec13eff0ea06eaU, 0xfdfb032309edfcfcU, 0xe3083c02e50a27f5U,
  0xd4ee0e0501f9dfU, 0xc125d8df25d7e6f2U, 0xda210706f5fedb23U, 0xe01706f8e6153010U,
  0xf7d322f5f1293907U, 0x1f06dce1f3f8c20dU, 0xddbe1114c1feece5U, 0xdbd9e813f304e4f7U,
  0xeb333bd2f62029f8U, 0xfeeeef518f738fcU, 0xddf7f7d8ee0bf4e1U, 0x121cf2eff8ebfce1U,
  0xe5ee1ee9e6e1dd29U, 0xffd4cbf6ea0623c8U, 0x1cfc3af210232e09U, 0xf30afb1216ddd03bU,
  0xf4fff142eae32ae7U, 0xebeffe17e824edf4U, 0xe521d8f3f19abeU, 0x23ec94e5eff5ffefU,
  0xeff7edd6d2e921e9U, 0xfe4fddf0af1cff0U, 0xedbbed1f7f01bf3U, 0xdef9d6fae7a509e8U,
  0xfdea08dd09e781e0U, 0x10d4a5e4f710de02U, 0xf5e4f8e2e6d0ebf5U, 0x13f3f8d0fdeeU,
  0xe208ddfaf8f4e6fdU, 0xfb15f2f414ce08e3U, 0x15f2fae9f8d703e2U, 0x17d20a1407e5d8efU,
  0x4eadef916dbebd6U, 0x1ce5deebf30500efU, 0x20eaf909fe13d7feU, 0x8ffe6d7ffd806f7U,
  0xdf7f0fe0bf20bedU, 0x140bfee11af60bf5U, 0xfff1ebd8f4f5e4e3U, 0xfdf2e6ee0fe31818U,
  0x361ff8fcece0U, 0xba700002b74U, 0x417400000281U, 0x20dfffffb62U,
  0x590ffffe933U, 0x459600001d6dU, 0x104fdfc00001f62U, 0x407f7fefdfcfe00U,
  0x70bf307fffef005U, 0x2fbf609f500fd09U, 0xf8050b0a030cfff9U, 0xfbf7f9f0f3f7f5U,
  0xf4a53fe7060102f6U, 0xd8b4df17b00be3b7U, 0xe01f9f403feef08U, 0xfafefdf8eff91506U,
  0xfe060a0d0d05fdf1U, 0x3fc0bf1f605fdf6U, 0xef05f305ff040e06U, 0xf30210060306f5f4U,
  0xfd04fdfdfdff0d00U, 0xfd0700fd04f7f5f8U, 0x7020c0108faf7U, 0x2fd050afe0cfd04U,
  0xf605fff9040c06U, 0xfe07f7fdfff8fe0cU, 0x1807092cf7d5d5e7U, 0x2090908d3433f1cU,
  0xfd1000f30104f8f8U, 0xf301010507f7fc03U, 0xfafef5fcfcfdf9efU, 0xfffffeeafbfbf309U,
  0xeefcfc070b0107f9U, 0xf501fdfa0908fbedU, 0xfb12fb02fbfeff02U, 0xfbf6041002fe11fdU,
  0x602fa040603faf4U, 0x1fef302f401fd03U, 0xf904f3fff307ee08U, 0x1eeb44e7f60ff9feU,
  0x1b25e8d5eed2110aU, 0xff00fcf70301f303U, 0xfbf9f3fff80703feU, 0xfd11faf7f500faf7U,
  0xf7030402fefc0ef9U, 0xf9ff00fa0707f7f2U, 0xf208fc060803fff7U, 0xf9050aff09fa0307U,
  0x3f803ff07f9fff4U, 0xfb00ffff0cfffeU, 0x10502fb06020001U, 0x11f60c050bfefe03U,
  0xfff100fefa0b1203U, 0x150933f9340b07f2U, 0x6060f0124f11e48U, 0x4050001f9ff00feU,
  0x7070cf90f000505U, 0x130312fb05f10d06U, 0x3f90503040c1305U, 0x401fffb00fe0106U,
  0x2fef60406ff0105U, 0xf8f701fdef0bf2fcU, 0xfdf8f907faf80cfdU, 0x507050301f60207U,
  0xafb000e0801070aU, 0x2fbfbfd00f8e801U, 0xea0ad91203e60c0cU, 0xd3ebfb26ead9c9e4U,
  0xfbf0f4fb00faef04U, 0x4f8eff6f6fd050aU, 0xfaeb0c0f0402f6eeU, 0xf402f90403f50a02U,
  0xfa09f01009f30807U, 0xfaf409060305fbffU, 0xe5f6fbf807fa030aU, 0xfbf1fc030aeff2efU,
  0x1020204fc05e7f8U, 0xf8ff08f90805fffeU, 0xf50807fff60400U, 0x8ecebf7e5f90000U,
  0xfe64ca1f48fc0a32U, 0xfefcf9f65ae42913U, 0x2fefb04f8fb00feU, 0xf8f2fdf601f500ffU,
  0xf500f20201edfcfdU, 0xfdf30109100406f6U, 0xfef9fdf2f9fcff07U, 0x10fe0200fe020901U,
  0xfef9f8f9fafafbffU, 0xf4fdee01f1fae90dU, 0xf80f0a06fdfa0306U, 0x6040d010ff7effeU,
  0xfefdf8ff00fa05f9U, 0x27e81357f9f0fbeeU, 0xb881cb47b2d8921fU, 0xfcfbf0030509f714U,
  0xfbeef5ff07000909U, 0xfde3f9fff909fb00U, 0xf104fef1fef608faU, 0x4faf71003f8f804U,
  0xf5f90e120df7faf6U, 0xe001afc08f80512U, 0xf5f8ff0b070107fbU, 0xfb000500fbfd090dU,
  0xf9f2fff9fe10ff06U, 0x90bfb12fc06fb06U, 0x1f7070a17060705U, 0x2efbff080910bff0U,
  0xf40e03f2fde92f1aU, 0xfd0403ebf7f6f9U, 0x150c15fa17120302U, 0xfdfcffefff130b09U,
  0x6f3f0f1f20701f0U, 0xfa0710f406f8fbf1U, 0x1ebff01f302f1fdU, 0xf3f804fe01f5fdU,
  0xfd00f2fa08040708U, 0xf6060606f6ff0303U, 0x80600140a08fa06U, 0xebf505f1f7fcfc02U,
  0xd5a0c91006fcf5ecU, 0x2d9520f41eccfa1aU, 0x1ededfafe04ed0eU, 0xf7f80701ff000cU,
  0xfcf60409fb0103faU, 0xf1f2fbeb01010207U, 0xf3ed0dfbf4fb04U, 0xec000c0ef8f0fbebU,
  0xfd02fa01f90dfafcU, 0xa060a02f90efcfcU, 0x708f9f7f8fc1007U, 0xfe0efdf60904f503U,
  0xef0cec010101fb03U, 0xfa18f8fcfcfff6f4U, 0xd0e4f8330bd62cf5U, 0xf7f9f8010122fed1U,
  0xfc04f905030ffdf6U, 0x3f7f705fc01f7f9U, 0xfd0711fbf512f5fbU, 0x10bf9fbfaf90604U,
  0x40305f50000fb00U, 0xf4030307f2fffd05U, 0x2f8f6fee806f8fdU, 0xf602f900f40405U,
  0xfe05f3f804ef0a0cU, 0xf1ff000d010107f9U, 0xf4ff03f804fa0600U, 0x3eda1d25fc0af700U,
  0xa170bd2fd180a2aU, 0xfa080702000cfd08U, 0xa00fffbf70cfa0aU, 0xfe030bf80a0c0100U,
  0xfef70f0f00021200U, 0xf3fcf50812fffafbU, 0xf60f02f50afe04f1U, 0x90910f60c01f9f9U,
  0xec00f4f5f709030fU, 0xf8fc0bfcfbfaf903U, 0xf7f906fff6f601f2U, 0x80c0105fcfbf9f9U,
  0xfef90415240d1709U, 0xb614d4fde9fef5f0U, 0xf803fbf5f9b8f9c1U, 0xf2fc030405f00500U,
  0x240ffef809fef705U, 0xfff6fef7fefd0b16U, 0xf9fffbf0e9fb05f7U, 0xfa03080a0605fbfdU,
  0x1107fcfb05fcU, 0x29cfffffeabU, 0xedefffff46aU, 0x1672ffffffc6U,
  0x124efffffc7cU, 0xfffffa2b000001ecU, 0xb20407d500000cf8U, 0xceda11f9e9d8d0ebU,
  0x12f2daacf631f0f6U, 0xdedc04ebc70225d3U, 0x1206f6c8d7253422U, 0xe1d3d7f1e0fe02f7U,
  0xb732fefcd9df06fdU, 0xdf0e25e9d8c3c8daU, 0xff1d0c08adff1ff7U, 0xd808fdfbddeeeae7U,
  0xe6f50efee4f1eefbU, 0xfbbaa2d6c03cf714U, 0xd2cf1d2ed9f62ae6U, 0xf3dde41605e2d501U,
  0xee1119ebe9d22dc9U, 0xec16d3e5dff5e5ffU, 0xfdff3a0ce5ffd8e4U, 0xe2f82a12e00a1addU,
  0xeacf3709f8e0201bU, 0x301c10acc280921U, 0x170bcaf1a910e4f8U, 0xd7e9e7ebfc0928e6U,
  0xfcc20d2cd3ff1435U, 0x12d0bffe1e01ffaU, 0xb2ee0b12ecf8e602U, 0xe0cd392d092cc51dU,
  0xd11eb23f5e015edU, 0x270ff307e7f1dd17U, 0xdefbc4e1333b0322U, 0x5e8353737d92d20U,
  0xd5b81136474425e8U, 0x6012d3446eac11aU, 0x1fc7ebdf12b414e4U, 0xf6c1e5e9e62dbef0U,
  0x46d5e6475c12f8f9U, 0xf801b6d4c4ee1721U, 0xfe0212c701c715e6U, 0x1712fe4cf1f4d814U,
  0xefd8fa0bdda508d6U, 0xb7c3f10a2f17ea2eU, 0xf2fed31314c9fc25U, 0xf71018fdfed5142eU,
  0xfdf4e13904cf152bU, 0x17fa0d30d225f316U, 0xe0f22b1c25c6df2bU, 0x5080b4005ecf20cU,
  0x6d3e0230f0ce82fU, 0x292eda051ee21a22U, 0xc7242ff3f604f8U, 0x15fd06fe26e7e91cU,
  0x1625fb1e14f3f004U, 0xfefef2f3e5fe0513U, 0xfdddd4e202e2ee00U, 0x29d6caf6f402e4efU,
  0xb91d24d627e9bef8U, 0xdcd91ae2d9d1cbffU, 0xe5f8e5c7f30802ecU, 0xd4e8f404e10e0eeaU,
  0xecfce5f8da1a1e0bU, 0xccfac9d9bcf51ee5U, 0xa41a0ff4d7cbeffcU, 0xcbf84100f1e4afbeU,
  0xe2101613cfeb0bfcU, 0xd8d300e7e5dfe3e3U, 0xda01f2fbd607d610U, 0xfcd59cc1aa160cf5U,
  0xdbf9fd04eed321f4U, 0xe9fcf10bf007c3e9U, 0xe11cfae6f5f3cf0fU, 0xd4031701e616f4f8U,
  0xd10132d3ed16eb32U, 0xd00decd1a3ec072aU, 0xd6efc1d7fb1125e0U, 0x26ba9fd603350ffdU,
  0xd0ac9139614fb1cU, 0xa1e8d80dc8c42f16U, 0xe6b0d0020d000601U, 0xd4eefc25dfca2c09U,
  0x2e8fde714d69f11U, 0x302f26dfe3c7d7e4U, 0xf4e1e605c6c3ed0cU, 0xd2adbf6020706f0U,
  0xdc1051e9fcf9ebebU, 0xffd7ffd3ebf112e6U, 0xf711e109cf0b0afeU, 0xe2272febf8cd1bf7U,
  0x4e8ba13f047f814U, 0xf0cf8fcf90f5a05U, 0xdf1bdaf2fae8e3eeU, 0xdffcead9ee2f08f0U,
  0xb2b051af72b4600U, 0xf91c3f1dedf3b3d6U, 0xd6ebe0e904cd1ef3U, 0xf53de1cadb14edebU,
  0xd33a14f005ece4dfU, 0xd021407bbdbf601U, 0x16200eee07e909faU, 0x1b0c0b1f04023347U,
  0x2a171e215a04f8efU, 0xe6e314fd131511feU, 0xdfadbe5051129f4U, 0x251c192a32f5201cU,
  0x4dfb290c0617ce3dU, 0x10331afb2fe7f84aU, 0x2104ed31e4d921edU, 0x11cf2123f0e0f3efU,
  0x13f4f33224253022U, 0x9e606211bdd0bf7U, 0xc3f2052934f3f0efU, 0xffa25fc430127ceU,
  0xe969faf781fadb08U, 0xeafad33415a50ef3U, 0x1edfbe18b91d1931U, 0xfcfea7eea0201210U,
  0xc9d4d1490393f8e9U, 0x5412130d2801c0e2U, 0xf148736b3bccf901U, 0xc0ffec48e5dd9054U,
  0xf3bcf9e21cc3081eU, 0x2f0efcbbdd2ed00fU, 0xd80f17feefdbf224U, 0x3318d012c65d262aU,
  0xe3d1e1cff5ddecf4U, 0xd55022c1c6fbcef2U, 0xd1d611f0d4efeea9U, 0xde3643e9d7ba1be6U,
  0x18d2150adeaf000bU, 0xc9eafe03d203c8bfU, 0xe8c6cfcdaf47fcdeU, 0xeac12818eb0cfef6U,
  0xdc0fd132f7361f37U, 0xec1bd2e324c51f08U, 0xc4f9bc1715fe10e0U, 0xd3c51bfb22e0bea2U,
  0x2505f12aebf5223fU, 0xcffce3fbf2dcdbebU, 0x25cced1d1115ea0fU, 0xea0c234aefe0ca0fU,
  0x8fce22f0fd60721U, 0xe313221fc9e3e13eU, 0xd01d23e6de04e521U, 0xe8fb1129ead01c2dU,
  0x20cbf644bb23242eU, 0x1643e7420ae60833U, 0xe902ca06dd17e518U, 0xecfc1601d62722e1U,
  0xf284633f8e311faU, 0x39ceee1201eeec28U, 0xf8e4c4261012081eU, 0xfc08e025e7f60b22U,
  0xeeaccfafed2eb26U, 0xd01c293b0fdcf6e1U, 0x8d5e3ecf3b110f9U, 0xa0e52521c6f6ef04U,
  0xd71ddfdc0632d743U, 0xd705b307fef5cf0bU, 0xe4d209f7ec1506f5U, 0xc9be010bbed7ec03U,
  0x11f6fb27ac01dfdaU, 0xa59fb06c902d1efU, 0x326590f0ae5d4ccU, 0xe6efd21be2eafbbbU,
  0x415bd4d2c6b1U, 0x47000019daU, 0x5074fffff477U, 0x1057000034e2U,
  0x1de2ffffc704U, 0x2e20000453aU, 0x12efff0500002734U, 0xbef0f0dfafe0af9U,
  0xed02e8f611f50c0aU, 0x13fe0809e6081309U, 0x7f10bf60ef9f1f9U, 0xef110fa070af604U,
  0x10326d710eefae5U, 0x2ab6e61e29deb5e8U, 0xf1fbee0d01fdf4e6U, 0xf907eb0eefe9f7f1U,
  0xfe0c02f70af90d0aU, 0xebeef5f0eaed0409U, 0xfbfb00f20a1005fbU, 0x1402f0ea06f0f0ebU,
  0xfa0304030dfa06fbU, 0x20105ff08fc00fdU, 0xbfc02fcf4fb00fbU, 0xf9fc0807020602fdU,
  0x10bf9fb07fffaf6U, 0xfdf0fcf8f00af8fcU, 0x1fa60bf4ccf6b516U, 0xef8f5042aaddaffU,
  0xf8f4f3f9f601fb09U, 0xf302f2fbfff7fceeU, 0x70606f803fafbf6U, 0xf9fe02f900f20601U,
  0xfb09f900f9010dfdU, 0xf403ffffff03ffU, 0x5f805f903f301f7U, 0xf4fcfffe08f807U,
  0xfff801f8fbf8f907U, 0x3f4f90802ff0c01U, 0x30805fe02fef800U, 0x760af4f8f50b0d0cU,
  0xd20e47ae02e83aebU, 0x1002f5fefafa03fbU, 0xf3fffffb0bfffc04U, 0xf30e010ef9f8effeU,
  0x8f20af80510f8f8U, 0xfa01f9f6f9fff8f9U, 0xfd0002f80afdf3feU, 0xf6fffd0debfdfd0bU,
  0xfc070000f9fdf9f7U, 0xf30df90202f1f504U, 0xf901040afcfc030aU, 0xeffbf90809fbf9f3U,
  0xf40bfe08f5feeb0aU, 0xd8f5f70dc329e7d3U, 0x2fefc01e630e9e2U, 0x9070b00f501fb0aU,
  0x1fcf0fdfafaff07U, 0xf7fbf90903080905U, 0x210fcf3fbf5fa06U, 0xecfefa0ff6f5050fU,
  0xcfa10050904feffU, 0x7f9fc0202ff090aU, 0xf90203fcfd07f602U, 0x9fffcfef8fcf904U,
  0xfe04f9faf803ff06U, 0xf6fafd02fffe0101U, 0xf7d4fc0f02f802f9U, 0xe8e8f4efd725d6feU,
  0xfffffe03fdff0202U, 0xfef908fe0001fdfcU, 0xfd0201fbf507ff0aU, 0xf904020606f7010aU,
  0x307fd01fafcffU, 0x403fffbfb020104U, 0xfbfe03f9000704fdU, 0xf701fb0802fffa03U,
  0xfffefff701fefe05U, 0xf300f700fb010103U, 0xf9090105fcfd06f8U, 0x20004fbf6fef4fcU,
  0xe30316392fe630eaU, 0xfefffffb16da0f0dU, 0xf505f709f4070005U, 0x4fcf80300faff08U,
  0x4010d07fd0801ffU, 0x9fefcfef7fe0c12U, 0xf609020208f6fb02U, 0x6010efdf9f70600U,
  0xf8fff9fffe0407U, 0xfd000309fc030200U, 0x5000303fe01fa01U, 0x4f807fbff08fc09U,
  0xfefd000a05fc0503U, 0xeb10ceeb05fc03f4U, 0xf8e10807d942f911U, 0xfe01050b04f8070dU,
  0xfaff06fd05fa01ffU, 0x408fefa05fb0401U, 0x607fc04faf9f303U, 0xfc00090efdfbfcfaU,
  0x7fc07fcfd05070cU, 0xff2fe0bf5fcf4f5U, 0x4f4f6f10afcfc00U, 0xf709f10e000002f6U,
  0x1fffbf9110f0defU, 0x2fa07f3fbff020aU, 0xfc0dfbf6fafdf1fcU, 0xdeb7f1373bbf8109U,
  0x203fafe5a31ae58U, 0xfbf900f60201f4eeU, 0xfbfc0bfdf411f701U, 0xe07faf304fff7fcU,
  0x911070405f508f5U, 0xfaf800f8110af2f3U, 0x9ff03fc0ff9ef09U, 0x8fffcf7fef9010bU,
  0x20106040002fa04U, 0x3f9080bfb07fbfcU, 0x4fdfffbfd02fd08U, 0xfffbfb08fefc01fcU,
  0xf2f0bf060101fdf8U, 0xe7fef9eaed42ef08U, 0x1051203fc040bU, 0xf90304ff070007ffU,
  0x40200f6f801ff07U, 0xfb06fffefcfaff07U, 0xfcfc030afcfcf5f9U, 0x2fe0afdfe040211U,
  0x501040302ff05f8U, 0xfe04fc090a05fdf7U, 0xfb04fafef901ff09U, 0xf3fffd02fa03ff03U,
  0xfefa04f908f7fffdU, 0x301f7f7ff000007U, 0xb8021f28ed0ee71eU, 0xfcf7fe08efe801ecU,
  0xfdf90606f7040203U, 0x304fafffd00fafaU, 0xfef702fb020304ffU, 0xfafefafcf9fd0104U,
  0xfa040305fdfbf7fcU, 0x7f6fdfe02fffdfdU, 0xfdfdf9f40005fcfaU, 0xf9fc060506f6f300U,
  0xfcfc0501f8f5070aU, 0xfafb0b09060a02f8U, 0xf0fe09f902f40903U, 0x220f060800f2fbffU,
  0xf021fc1f2313fe10U, 0x9fcf9fc08f9fb05U, 0x5fc0e0304fa0efdU, 0xb0004f9f60402feU,
  0xc00070500030504U, 0x401f80007ff100bU, 0xf9fcff0e0e05fbf4U, 0xf5f606fc08080afcU,
  0xfe06f2f8070b07fcU, 0xf6f5060909f109f4U, 0x8f4f2fe08fafcf8U, 0x507f8eff707fcfbU,
  0xfe0606f9fbf9f8f9U, 0x52c0e15182b0709U, 0xf600f3f43a11ebe2U, 0xeffaf9f0f50bfef2U,
  0xf40c06eaf60208f7U, 0x5f6fb01050cf6f4U, 0xfc05fff4ff04fafbU, 0xa0802ff09f106U,
  0xe99f0f700f8U, 0xfffffc87000014e2U, 0xcad00000cd7U, 0x373fffffed3U,
  0x6630000030fU, 0xfffff69c0000093eU, 0xd4cb0a08fffffff9U, 0x6d1f8e6cef2ded3U,
  0xe8b8bbd30a3630f4U, 0xe403ee031b13e020U, 0xf3251f2908fd0bcbU, 0xe38f01fae215dd0aU,
  0xffe4e1e527cbf7e4U, 0xe610b7d0eab0dc05U, 0x7be0120eefa04d1U, 0xef082307d6dcf20fU,
  0xd51acbd3fdf51102U, 0x30dbe1f7ec4301d2U, 0xf7fee539c4e7f6bdU, 0x1309f3b340d2f0d7U,
  0x1fd101260d1cffU, 0xfb0915fefff9022eU, 0xfec424f1fce5051eU, 0x1512ea1f1cdb04feU,
  0x161206e60bf3f213U, 0x8e1171f010add03U, 0xfa051ae6f8fefbf9U, 0x2706f517feec1407U,
  0x11f826300022ee0aU, 0xf2ff02fc3a0e2603U, 0xedfce6da17e10f2dU, 0x4ee360ee10304f6U,
  0xe93ffe1317f201e7U, 0x3cf6340df6fc1e43U, 0x20fbfe4af5fafe2bU, 0xe8d01fe41a123507U,
  0x2215e92d3102e4ecU, 0x3502eb2edb0ddf40U, 0xf6e209022b2a2610U, 0x12ed07d914fe0848U,
  0xe8081504d9e42cdaU, 0x1308170e11221ffaU, 0x3a21eef8ffc60f30U, 0x2814f0efeddcee03U,
  0xf3de1cbae50a0fedU, 0xbf01113f3fd19fbU, 0xfecc3228e6151d09U, 0x39d550e3163811d6U,
  0x4e28a7ce1cb12803U, 0x7034afeca4bfbae2U, 0x2cc315ab04cd014dU, 0xe10cfc2f443532f6U,
  0xc19deeed1609ac1eU, 0xd881adf4f6001a06U, 0x26275c3eb711901cU, 0xeb86defd189f362bU,
  0x6f9c701b81039b5U, 0xc845c49923cea4deU, 0x453482a5a6df08fcU, 0x395f84fd14ca9c8U,
  0x1ef7180be99d2cecU, 0xfa09fa110f0bee09U, 0x11dc24feee0d0214U, 0x1bec150600ef06ecU,
  0xf7f6e63c0933f7e9U, 0xefe8f626f308f3U, 0x1faec10f603fa08U, 0xffe8ecd8f4e40ed2U,
  0x62fdb101a1a0fe6U, 0x1c02fcf6f5f1f55aU, 0xbeff6e0f1d6e1ecU, 0xf2cefbe616e7f805U,
  0x131008de02f60dd8U, 0x10f12e59fe30fd02U, 0x63eba1b60d52ff2U, 0xedd9fe0a1ed12c33U,
  0xed01fc231f21f1e4U, 0xd00723d30028eeffU, 0x420414e13d14fdf6U, 0xe9f8e33febed0234U,
  0xfe04df2bebee2402U, 0x6211e4f5c7e1dcfeU, 0xd193065d044411cU, 0xff5ca056c2c221dU,
  0x31e5d3cb0507f90dU, 0xdb1b231dfaec3309U, 0xd20ef92340cc03f8U, 0xe14641dcece51129U,
  0x3d37b2c725c81c15U, 0x1f217b9f5a49d6eeU, 0x1bf712b5752c1f30U, 0xfad2ddfae068c56bU,
  0xfdf33b1bff431f20U, 0xc84df1c2a6dafed6U, 0xd7c4e6a436ed0ddeU, 0xbcf3c167d0010568U,
  0xde18deee501b0b3aU, 0x185ed7fcd3f1f51aU, 0xe8c22523b260e9dfU, 0xefc63902ffb0b1cdU,
  0xf4aad2b2ad243da1U, 0x10c53bd8dc511debU, 0x2fd1f21bfaf6a88dU, 0x480fccf4fbdbbc07U,
  0xc248ce0d0e132e10U, 0xee2debeaeaf74d1cU, 0x540be09c2a993345U, 0xefff3e3718fe44ecU,
  0xff02c7e9f6ed3f1aU, 0xbc285045c148e803U, 0xe9d63f13fc0afa2fU, 0xd0ed2afbf5ee231dU,
  0x72f68362c0c4a15U, 0xcf111acb011112fbU, 0x29f30e0be0df20f6U, 0xfcf118160131edf3U,
  0xeb01fde9022e08ffU, 0xf4f03301f4b8e431U, 0xe601f214e304dc0fU, 0xfb16f8df2ff9e9dfU,
  0x17e431e7e606f316U, 0xf5db38ef1fed381fU, 0x52dfe1609d6081aU, 0x605210a030fed3aU,
  0x10e90c4d09231ceaU, 0xfe2323ee140b0ae5U, 0x705190515d950ecU, 0xfd0717120e360747U,
  0xe61f07fa11ef2400U, 0xdff400eb18eae401U, 0x13e90ff42ad11af4U, 0x1922d3150bf31ef3U,
  0x16ecfd0cfc03fa28U, 0xf9e3f71ef2f6e30fU, 0xfaef21f0f5f5f9ffU, 0x1ee60c0806e40605U,
  0x13024a0325f6fcU, 0xee1c09ee31f4f3f9U, 0xaecf6e9ec021bfbU, 0xd7f42012f60bec17U,
  0xde2deb2e13ee03e9U, 0xee30ce0fb111c58U, 0x1d900e01ec507c7U, 0xe105013906f1daf2U,
  0xf106e618ea0a40f0U, 0xed0c14f003f1e5fbU, 0x1d0144f31fe104f6U, 0x14ece4dd13e40deeU,
  0xebf32033e3304531U, 0xe4ee160d00f711d3U, 0xfaf6edf1f62d01c9U, 0x112218e7e20126d1U,
  0x75d3617150a2e22U, 0xf5d20ae517131c0dU, 0x4ff10e10b1a1105U, 0xf15dc0144151d03U,
  0xf0f10311f1fe1805U, 0xfde1f5d501fd10fcU, 0x20fe171b07ecf2ecU, 0x2e00f701e2eefe18U,
  0xe8c0e61800fce80aU, 0xe1e529f308f5ed04U, 0x34ea17e51bd411d4U, 0x28d1221ee8170424U,
  0x3e1dbef21f9e20eU, 0xe0ed05e7e4f7ea06U, 0x10f205f0e7d00cd6U, 0xe0050f132814d9cfU,
  0x39dc16fcf810U, 0xffffebaeffffee3cU, 0x26200003606U, 0x8c6ffffe4bdU,
  0xffffe636fffff662U, 0xfffffa8ffffff8f2U, 0x4111e21000005b0U, 0xceb1c11ef0efe1fU,
  0xea0cf60516e61dd9U, 0x1e1a21d7fcf412dcU, 0x340efcf4fbfc2717U, 0x51507e61bfde817U,
  0xf3f419281cd8e5c9U, 0xf6d7190bfaeff843U, 0xf3ebf9fd05f305dcU, 0x20c60bfd1ad61c03U,
  0x753ff04e51ede0cU, 0xf0e8c3e5defaeeddU, 0x50c130f0fd4eb23U, 0x18e910f9f7fe1720U,
  0xea190b08fdd81ce8U, 0x35b2d82821e0eff7U, 0xffc0fd5edd22aeeU, 0xa8ced2d14b174d25U,
  0xef0e0d1cffe7ebdaU, 0x23f615f4ff01ec2bU, 0x21be7deeae612f2U, 0xd82941f3f2dd14e0U,
  0x73a0642eada2df8U, 0x16001ce0e0ffebe4U, 0x14fc0224f7301acfU, 0x160b1b01f40d1c27U,
  0xe504e0e411e913f0U, 0xf4f725db19f41211U, 0xe004e0e3cae3e20bU, 0xca12e7d83a11fdf7U,
  0xd92bcf0423e1fce9U, 0x190ec5e5d1c817eeU, 0x21e0c7eafa09f10cU, 0x90a1528e5f9fde5U,
  0xecf31811d0d80739U, 0xfb1002eff3d6e6e9U, 0x1ef919151705d8eeU, 0xfcfd0831faf2e35fU,
  0xce0c60029f3260bU, 0x2e8eefc51ecbf31dU, 0x15dcd35bf3dfb9f8U, 0xb83c4002f2d020e4U,
  0xee11341c40bedaf7U, 0x8e1ff14f202fa38U, 0x17e911dffcd1f614U, 0xa0abdd4edf0f6f5U,
  0xedc50cde29d1cc36U, 0xfa31203adae0fc23U, 0x25fe0fa9f3fcd809U, 0x52ffe8d9e118cbbbU,
  0xcc36e858c6aec442U, 0xd9a3811dacfa334fU, 0x4ada0dfb0dcd24d7U, 0xb406eadd53091ce5U,
  0x23030cf127fec0a4U, 0xb17212313151923U, 0xdd28380d01020dfbU, 0x13cf0f2d230c1edcU,
  0x1bea1211fef10c42U, 0xdb14e41704eff807U, 0x3d0df022af3e925U, 0xffc0ed04d217dcccU,
  0xebe9eac8222a2f04U, 0xfc0613103509ee3bU, 0xedfa17fbdd18183aU, 0x1bf3fee209fd1cf1U,
  0xeefbdd11f0ef0dfaU, 0x2dd618c2ffd0f818U, 0xc0dcd2fe8dd3120U, 0x2cf91b062ce01df5U,
  0x1102f5bbe6b3b431U, 0xd4d7febcd2b82923U, 0xfffff81a423824c0U, 0xfffffd23fffff730U,
  0xfffffa3bfffffe57U, 0xfffffcc7000006a4U, 0xfffff4b6fffff5b2U, 0xec500000ee4U,
  0xfffff423fffffe27U, 0xfffffac200000ed9U, 0xa5f00000b1aU, 0xffffee010000117dU,
  0x1158fffff6faU, 0x6d6fffff9c8U, 0x6d4120a0000090aU, 0xf5ffe1d008f8d9ffU,
  0xd5fbff06fefcdbefU, 0xfbe1e70df604ebdcU, 0xe1201208f92411e6U, 0x1b05e517f6e7ffe6U,
  0xfd0f04de1bfadddeU, 0x13140807d105f7f3U, 0xe8e3f2f0f605d4f6U, 0xe511110bf9fdf7ecU,
  0x16eadad8e7efe701U, 0xc910e60015f6f3e1U, 0x1d712fa08e310fbU, 0xfb14f00e0526060fU,
  0xeb072624dcee1809U, 0x12e1f8000027e0fcU, 0xfd1f13def4eafaf7U, 0xca0de6ec14e70af0U,
  0x11d9fad3edfcf8ffU, 0xf3e220f5ff1a0ce3U, 0x12f8fbfdf519e601U, 0xe3fcfb0c3df8dcecU,
  0xef11fcf705e90a11U, 0xe026f20efa0d00e7U, 0xf2dc0cd30d26040bU, 0xea0113ebdfd2f8edU,
  0xd80cf4f51ced16feU, 0xec0a020932e2dcf5U, 0xe8e7faedd723160aU, 0xebf216d30df421ddU,
  0x1305f6de3010040dU, 0xe824e7d603e71ddcU, 0xff191ad0ec1422f8U, 0x31e425dde1f2db29U,
  0xdafa33d40cd3fee0U, 0xe0fa30f4fdd5fadcU, 0xf92df30037f4032aU, 0xe1011314fc0a09edU,
  0xf0f30deaeaf4e31eU, 0x1006f6e42bf2d4efU, 0xf3d31605281b0c07U, 0xead421ea0b101e0dU,
  0xf0d8ddd225daf106U, 0xecf2fee80312010dU, 0xf70104eef3f128d8U, 0x250d08f80de8ccf2U,
  0xd1dc220b0d0b3adaU, 0x8ea0002cde206f2U, 0x11e4d9e81216faffU, 0xfd0c03f9f8dde7d8U,
  0xf31a060c08f527eaU, 0x38dcf10fecfd021cU, 0xbe5f70adffae9U, 0xe30720061edf0edcU,
  0xfbede60feff413edU, 0x15ef0c15fb211b0cU, 0x2204de1af8f7feeaU, 0x16e2ed0e13201cefU,
  0xf6f905cdfcf30be6U, 0x13dc05f70ae1ffe8U, 0xdaf11016fffcf3f0U, 0x15e8fb061bed0809U,
  0x1d1a06ec210f081aU, 0xe5f2fcf91211f5eeU, 0xfb12f4dffcf8d70aU, 0xfbd905fa1505fe09U,
  0xec1dd9170211faefU, 0x200deaebecf4effaU, 0x14f5e5e7141403f6U, 0xee20f520dade11d4U,
  0x28edf7171817ea06U, 0x2211de0f212d1329U, 0xfaedf9e915ee16ebU, 0x601e9f111e80a08U,
  0xf8e1f4e2120605f4U, 0xe416000eeafa0500U, 0xf8ed22f2201ff0faU, 0xf120ceb092d1934U,
  0xf20e021b2df4020dU, 0xfd091b0e081f0910U, 0x1bd9ddee16000612U, 0xf8dfcde516faebe8U,
  0xecf009f6e2110624U, 0x1ee42f1614eae9e2U, 0xf1fbd62319051b19U, 0x18231a0bd8151214U,
  0xeafafbe419fa0ffcU, 0xfcd70bfc0308fde6U, 0xe82404fbe618f7deU, 0xdbfe0e0008dd19c6U,
  0xe3fec2e40ce90712U, 0xf20507f5e01339edU, 0x12ce0bd826f50a17U, 0xf304c2e2ff1bfcf4U,
  0xf5f9fdddd4fbf9f4U, 0xe3e807e322e3e8efU, 0x6db14e20c170bf7U, 0xe9e8f9f2f4e41ed7U,
  0xec0a140013052a0fU, 0xe54d63d2013d1f4U, 0x42e0092bf1211024U, 0x2a071dd2fa1a231dU,
  0x2724e3e0ee180edbU, 0xdff2eedee70e0b06U, 0xbcef0e1f0ecee1bU, 0x412fc15f3eeff0dU,
  0x8f6fd32021806faU, 0x92605182c33fb07U, 0xd0d1110afd112e14U, 0xfcf2052addf002e1U,
  0xc0171502e40611d7U, 0xf5d7dae7f01eebd6U, 0x18d71f15e9f40a0eU, 0xc9e9defae319d8edU,
  0xe3e9e0def30ee6dcU, 0xdd292c0bfdf73bc8U, 0xed90debe3cbefe5U, 0xe4122102d418fee9U,
  0x6da0a0d091614c7U, 0xfa0f0df7d4d1fb14U, 0xf0f7f6161b0bd127U, 0xfae0eaf62f0c1dcdU,
  0xe1f2f2f9c8d2e6eaU, 0xccc2c73afcfbe4U, 0xed28f622f1c724d4U, 0xfe0802e1dfec0b18U,
  0x1028f4d1d5dfee0dU, 0xd6f91fef05ee0513U, 0xf2faf439c7dcfc03U, 0x2dd802df0dd80fecU,
  0xe313c7000fdce90fU, 0x15f904fdd2d1d634U, 0x2c0c1ef5c1f4cedfU, 0xd404d3dde0cc22d8U,
  0xf84116e502141405U, 0xfaf609ece6d2d429U, 0xfb00fa00fff002ecU, 0xf604fafb17f1f20cU,
  0xecf7f4fa0c0c01f2U, 0x101407fa0a06ec0fU, 0xa020af7f0f305f7U, 0xfbfcffe002ec080dU,
  0xeaf3ee0804f0f901U, 0xe9f50cfce5e409f3U, 0x10ee80f0c08e8f5U, 0x4eb0c0beefc0efbU,
  0xbe5fb0d0ef6ef12U, 0xb1df22ef4fe0efaU, 0xdef0608fd04fc03U, 0x3300f0ea0526fb23U,
  0x7fe0be9e3fe19f5U, 0xfd14fb020e0602fbU, 0xe400ebfded06e4e9U, 0x118ee0014e900f0U,
  0xf205ed05e706f8eeU, 0xe70003150c080f0bU, 0xf01df608f4f214feU, 0x210dee171824101aU,
  0x290101061509002cU, 0x16fbeb0707fe15e9U, 0xeeeceb00f9feebU, 0x40eedf8fa0cfc00U,
  0x2ae8f9fc0710fb0bU, 0xe020fb1cee0502ebU, 0xeae81fda21161516U, 0xdf1316dc1600f105U,
  0xb0315ebeee1fd25U, 0x140fdde711ec1531U, 0xde00ce1317e313e0U, 0xeadcfbe301dcfd20U,
  0xe422c9ded30a1e03U, 0xae91bd926dc0fd0U, 0xe4d9cac60beecccaU, 0x1ee8fc0903d104e4U,
  0xc4e4f415d72215f6U, 0xe12e0f614d603ecU, 0x16f4fff7ebdc02e4U, 0xede602e10312ea1fU,
  0x2820dceef428cee1U, 0x15cce90e1ae4fedeU, 0xe111dec51e1fe906U, 0x9f3f8f507c3c2f9U,
  0xeca2cce907efc0fdU, 0x111315e810f6ffdfU, 0xc400f4d7dd0506e6U, 0xebdee31422070cceU,
  0xe6eebfd003f008d9U, 0xe1f502d5e515e112U, 0xecf2fc0c161019f9U, 0x16e1fee32410ecf6U,
  0xe8f6f6d1ede2fbceU, 0xdaebeb0f15e41df0U, 0x103dd0bfef7da00U, 0x2ef2809dafe22ebU,
  0xe1d90cd5e1f208f2U, 0x14fd04f81f0dfc21U, 0x91efd10f51800faU, 0xfeff03121b0813ffU,
  0x10f7fbd6d804fb00U, 0xf7e301d3ed06edf9U, 0xfafafaf814effde5U, 0xcffdf03fc08d9edU,
  0xea0f2f12fce60501U, 0xf5e2f2060e001bfeU, 0xeb14f2ff0cfee405U, 0xfa18fdfa0817f0f0U,
  0xe4f5fd140b0b22ebU, 0xf5e9070001151dfdU, 0x4f10eeafcea13ddU, 0xed0d14e612e8060bU,
  0xf8fcea0cf80c0b19U, 0x100a2a03f1161119U, 0xee042500f30d08e0U, 0x1812f2030616ef1cU,
  0xe8f7fb08e8e21008U, 0x4f90bed151413e7U, 0x6e5dfdbe9e909f6U, 0xf7f10cf90edfe7fbU,
  0xddea090822e90ef6U, 0xd501e8f110f702fcU, 0x1b13f3ebf1ee0407U, 0xf8ed11fcfdf50716U,
  0xfe200522eb1916fbU, 0x15edfd14fafd14f8U, 0x27eb11e917061710U, 0x19fbf0e007f514f9U,
  0x5fc0de8e8d717f3U, 0xe0defee4fef904e7U, 0xf321fd04fb0cde01U, 0x150febf0e31cf60dU,
  0xf6e60ef0fcfd0805U, 0xf0f90a110a0006feU, 0xfdeb02fee5fe131fU, 0xf8d700070300eb0aU,
  0x1bfdd6ebf0f50bfaU, 0xd12f9f0d8e0f3f3U, 0xfdf1117f1fef6fcU, 0xa1cf105ffe7080aU,
  0x2becfd01ef24000cU, 0x2e3fc03ff2d0ff5U, 0xfcfef20e11fd1704U, 0xfdf5e502e1fbfd17U,
  0xf3e0fb08f0f3e517U, 0xecf11016eafff5feU, 0x1f161224fe041e27U, 0x71106e8fe17f2fdU,
  0xdbe9ffe214fb1813U, 0xe8eefe03ee14f4fcU, 0xf1a0d01ede0f007U, 0xeef21003fd13140bU,
  0xfd190a09edf8fffbU, 0xedf716eeebf6eef5U, 0xfef6e31124e90a04U, 0xcf519070803f907U,
  0x11f1f6e4e5fbff16U, 0x150407d80504f0f8U, 0xe8efe7f4e5fce7eeU, 0xe2e0f5f61405e6d4U,
  0xf3fbf3140b0ce5f8U, 0x4f70800f2021afaU, 0xd1105ea00f91b0aU, 0xf407e01610070006U,
  0xfa040bf7101ef4fcU, 0xf612fdedf3eae9eaU, 0xf902d5d7e5faed03U, 0xff7f0ddf6d8f6f7U,
  0xdfca18f008e1ecdeU, 0xfb0f0e01e7edfdefU, 0xf7f0f20a0dff0612U, 0xeded06f50719f903U,
  0xee080a070ee6ede6U, 0x130403101005fd06U, 0x1fe0106fd12f502U, 0x160bfdf901f505f3U,
  0xc04f9fae5f8f1faU, 0xfef006080606f306U, 0xf81d0611fe030500U, 0x20f8fe0ffe10ff16U,
  0x1c0c0a04140e0927U, 0xfc03fdfef9f61308U, 0x1701f8f411fefdf0U, 0xf1070cf7f2fd0cf0U,
  0x3f90600fcf309f6U, 0x302f4fee0f4fdffU, 0xfcecfdf1fff60cecU, 0xfd26fc11ff04f9f4U,
  0x13fafa26e5090027U, 0xff20b03021df820U, 0xf500060d090211f1U, 0x709f704090b07fbU,
  0xf8f30300fe070cffU, 0xe03f6f5fff71504U, 0x301fbeee70706f5U, 0xfffd0e00ef10fef9U,
  0xfd05f51af5fa03f8U, 0x2004fd1ff40c001cU, 0x5fef50b060ff00cU, 0x81af3f4f2f414f7U,
  0xdbeaf6f20409ffe1U, 0xf004e204efe9ee15U, 0xdc02f0130af2eef8U, 0x6fa0aee010217d8U,
  0x7e6eaf51bea05e8U, 0xf703f6dff41be5e1U, 0xf919e90109fbeffbU, 0xbeff60002f8ecd7U,
  0xfaf1e41d21c7e7U, 0xdf016dcf9ef19f0U, 0xeb08051a0ce5e412U, 0x40208e4e8e3e416U,
  0x1f0d15f6f9f50c12U, 0xae3ec0d0be023ffU, 0xf9e90600111905f0U, 0xe70cf1e604eb03c9U,
  0xeff603ffdcc1eee1U, 0x1fefecfadd09cb11U, 0x8e90205ef0efddfU, 0xd11f710ed0d1306U,
  0xff150cf1ea0dfffcU, 0xe91aeceb22fd1a06U, 0xef812fb07f80e19U, 0xf5fef20631f6f50fU,
  0x181b13e0d902e2e5U, 0xfbec051dedddf9d4U, 0xd8fef707dd12f715U, 0xfcf01a37fa021b10U,
  0xfc2ae7fefa2ae405U, 0xbe0601e6f9fc191eU, 0xf305fc0a0109f6ebU, 0x61aeaedf20af62bU,
  0xe40104d80eeb0611U, 0xeffd01fe17e0140dU, 0xf60fe61fedfbe9ebU, 0xd6090ef60a02dbe5U,
  0xf80af7edfc0217fcU, 0x5eaf0eee9d901e6U, 0xd3dff0d71121f30eU, 0xdff6d70ae20a16ffU,
  0xd0f0f0d50b040fe2U, 0xece606d2f615e003U, 0xfaf2fee20106efe5U, 0xcc05f301eb0124f7U,
  0xe7fef3f72bf80108U, 0xd21601d6ebf3f8edU, 0xf0f3181107eef0ecU, 0xfeeae8c91900fcf6U,
  0xf1051cedcfbd07c2U, 0xe2ffeadf0fc5e0ddU, 0xadd0f06fbe2e111U, 0xfb17031006e221e1U,
  0xf8f80d25e1090df6U, 0xf4e6e8df3205faf4U, 0xcff3d9d3fd020fecU, 0x50bfceafcdad9caU,
  0xd113f01bf4f205f1U, 0xfd2115dafef3e9eaU, 0xebf3ecf6001416edU, 0xee17e1eeee24e3daU,
  0xe401e40dfd00f0e8U, 0xde1205e7f1f31c07U, 0xe2dafbc81202ec0aU, 0x41623e4ead601d3U,
  0xbeb1b0e0e07130dU, 0x4effe0afe14fef8U, 0xfe263beb04e0f5dcU, 0x24e81100f4f11ae9U,
  0x6e32206fa0005faU, 0xa14ddd2000ffed5U, 0xcd7e6d2060218f1U, 0xf9df21e70100f3e2U,
  0xfcea0ac4e6d200d0U, 0x5e400100cdf04f3U, 0xe2fe28f9d505f9f6U, 0xdf2422def307e6e4U,
  0xf3e3ec0bf6e909e3U, 0x16ee0729cb0aee13U, 0xfaf225e92c0206U, 0x51edcf11bfa16U,
  0xea26fff509f3f6fcU, 0xf6071a2f10101500U, 0x121c10e2f8020801U, 0x10ef00fc0e1213edU,
  0xe70bf4fbe00b0f01U, 0xfae20de206f4fef0U, 0xf8fe06fd0bea0bf9U, 0x1c07060801f70c21U,
  0x40e1af7e31a1bf9U, 0xfcf1091b1af506fcU, 0x6171c2919231a21U, 0xea2a09f4f3000614U,
  0xf2fde9f5371307faU, 0x41bede311fa0011U, 0xda09ec0bf60cedU, 0xf921110aec0e06f2U,
  0x16e91327fb251a16U, 0xfefa12fae50c2208U, 0xfee91eee38f2ee16U, 0xfa0f16fbece9fbfbU,
  0xf5ff111beef50fedU, 0x1e61cff08f3f902U, 0xe7fbebe9e5e1faeaU, 0xe103faf9eb01020aU,
  0x21611f5eff0f7feU, 0x1cfc19fbfb021200U, 0x12f71cf4f411f1feU, 0x310110809efef0aU,
  0x12faf50e09070803U, 0xfe0af7f9050ffa03U, 0x909f3fb0efd06feU, 0x6fb03effe04f400U,
  0xfbf3ff01f8fcf4f6U, 0x51f0c0f0509fe03U, 0x100a0614ee0e130eU, 0xffc02030b110b17U,
  0x4030407fcfa1100U, 0xfc0204f311000bf9U, 0x5f80a04000107f5U, 0xbf4effa0c080906U,
  0xf6fbf3e7eaef08f8U, 0xeadcf3fcfbebfbecU, 0xf8190616eef8fcf7U, 0xe070228ea100e15U,
  0xe080bfbf513fa19U, 0xb04fffefb0b0605U, 0x401f7f6fffa03f3U, 0x501faf8f30a0503U,
  0x1502faed00000309U, 0x908faeeecf4fff1U, 0xf2f704f5f803fff6U, 0xff911fe07f6fcU,
  0x11070b13f618f918U, 0x10a030503fff110U, 0x9da19ac05f30702U, 0xb218ff032bc32eb5U,
  0xbc7f2b111cc8e5cdU, 0xe01af5e213f70dc0U, 0xfffbd2eb3df8e8faU, 0xe81928c11dcf21d7U,
  0xdbe6cbebe0f7dc04U, 0x3af41011f2101ef2U, 0x23f1fbfcefe4edeeU, 0xf4eaf51634d3e504U,
  0xea05f8e710240acbU, 0xf133e8c23cd71bf5U, 0x314141031fde1edU, 0xd8e91d0d2c1e01caU,
  0xb1eec3d50dfe36a0U, 0xc18c1d6e8e00bdaU, 0xd9c32508d4db38cbU, 0xea2ed0c725d3d6dcU,
  0xdf07d527fd2710ebU, 0xf2e41fdfdbf3d3d9U, 0xf5fbfee33828143cU, 0x1d0aba1232f7feefU,
  0xef0731f82ebb09ebU, 0x1f10cce7d5cdf2feU, 0x6d60d2600eaf710U, 0x43cb13f2dce045fbU,
  0xcd0a04fd2127defaU, 0xebfc04fa090b2fdeU, 0xff150d09f4fdf510U, 0xf8ee07f010000705U,
  0xf901f3f8f60eed0bU, 0xfafd05ffd2f9e6e4U, 0xfff61309eeebfdf3U, 0x1c1b1e2407eff9fcU,
  0x1cfff63b0c200627U, 0x13f90d06ed12f121U, 0xea150be8f1011fffU, 0xf3f81013f40b0c0bU,
  0x5ef26f21fef1dedU, 0x902e3e6fe15040fU, 0xeef9eee4d9f603ecU, 0xf5ea18fc06ddf802U,
  0x70500fd0ef5ebf6U, 0xfee9121bdd2208f8U, 0x2ddf3e2f5fb0415U, 0x140c09f1f612170eU,
  0x8ff1fed11f9160fU, 0xf1e90feaede61cebU, 0xdfb12ef0e04f010U, 0x60511f8f7daf9feU,
  0xe4f2f90af8ea1b0bU, 0x4ed04f6f9ffe514U, 0xffe6fafbfcfbfcecU, 0x613fde3e9e5100bU,
  0xfb06040b06fdecf1U, 0x11f6ff0b1e04fa01U, 0x9fc04070317f40bU, 0x1b13020606000f03U,
  0x3fdf30bef0af8f6U, 0xaeffcff0bf9040cU, 0x824fe2103f40cf5U, 0x1c060d22f2150920U,
  0x1f13fffd071df92dU, 0xff0401ff04050ffeU, 0xbf5fb000503feffU, 0xfdfffcf9f70ff8f8U,
  0xb09f8fb0f021701U, 0xbfff000ecfa0301U, 0xf2e1f004f5f7fdf4U, 0xf017011103f7f7f2U,
  0x19f6fc1df8200010U, 0x1a0403fafa0bf00cU, 0x306f70402071f0aU, 0x8080302060cfffeU,
  0x2f80300fd080f00U, 0xfc02fcf5fe050b0cU, 0xfd03f0f7f1f9fc01U, 0xeefafff8f70605U,
  0xf20afa15f9f302f1U, 0x13f7f800ea12f708U, 0xcfc03f5fd11fe13U, 0x10f0502ed070f00U,
  0x1101fa050c12f705U, 0xd00f5fdff100000U, 0x7fcfbedfbf70fffU, 0xf5fef7fbe6fcf7f2U,
  0xf7f4f6020508010dU, 0x917131ffdf5f201U, 0x13f9002000020d17U, 0x131209f6ff130816U,
  0xf80d04fd04070d01U, 0xdf704050b11f4f6U, 0xf80a0308f511020aU, 0xbf4f9f601f50e03U,
  0xf800faf0effcfcfbU, 0xf6ee04f5fe0106fcU, 0x2050706fef1f606U, 0x1d00fb28ea14fd0fU,
  0xb0706fb0208fd0dU, 0x7f9020a0b080f09U, 0xfff7000408f500fdU, 0x8fb00fcf9f709feU,
  0x4f1f6f60afd07f8U, 0xf00b04f2fff303feU, 0xf1fdfbfcf8f6f8ecU, 0xe020bfa01edf3U,
  0x1050a15f804fe12U, 0x700fa020501f402U, 0xf81311fd020811f6U, 0xfcfcef07101ef30eU,
  0xfdfe0c1205ff17U, 0x14ef03ff111215feU, 0xe8070f01f5feedfcU, 0xfcf8ef110cf2f80eU,
  0xb161a0b11ebf3f8U, 0x13f91c0cf803fe1cU, 0x200f08ecf519060cU, 0xe703eb08f3ef130aU,
  0xfffa15fceafdfb06U, 0xeffd0f0606f80bf5U, 0xcfefee40504eb05U, 0x6f308040ae608f5U,
  0x4f7f4e1f5060b09U, 0xeb1afc2006eef6f7U, 0xfff0d1106031315U, 0xa0005f00721f622U,
  0xf2fc03f6f5f416f6U, 0x6fb07ed07fafb07U, 0xf6f003ec03ff0c05U, 0x11f1e3fd0d12f906U,
  0x4fb02eef3eefde8U, 0xffe612fdf2e302efU, 0xee08ec15ebf5eb05U, 0x4001214021afe13U,
  0xff0cf0f00b0dfd15U, 0xc1c40721f7020b04U, 0x16142d2c10d40bfbU, 0xf3f02af3ebee43f8U,
  0xc4e417c4211cccf2U, 0xc31d2a1140d3021fU, 0x824032f30100ae3U, 0x37b6fc17e753cb20U,
  0xd720dae12917f0c8U, 0xeb21fbf534d4f5d9U, 0xfe030cdb272cdaf3U, 0x11206c7ce0cc3fcU,
  0xe6fd13defcd021feU, 0xec0114d6e02a1af0U, 0xb9062cd023c2f2d6U, 0x313ed2e24f2c408U,
  0x1ffd221716d5bac9U, 0xad0e0cea01e127e4U, 0x242020f1f1f121cdU, 0x37d0ec02eeeff12dU,
  0xe4021a00e2c12f14U, 0xfec82de7e3e81cdfU, 0x2d4e1ccc81afa35U, 0x19bfe6edf6fdfdfcU,
  0x30e9eecdd8b0f10aU, 0x3f0113def337e9f9U, 0x1ee0ec36dde6d031U, 0x27152220feea31e9U,
  0xf20408f8a82ce508U, 0x121a07f7f9e9ebf1U, 0xcee06050cf4fa08U, 0xe803f1ff180dfef0U,
  0xffd07f0f911f1f3U, 0xf41517f90c12f5e7U, 0xf4ecf902f4fa200fU, 0x8f20dfaf60719e1U,
  0xd4f10700f8f90feeU, 0x10fc07091cf6f313U, 0x512ef06ed160bf0U, 0x10e410090ef4130aU,
  0x2151d1bfa13ecfbU, 0x11ed07110f1d0205U, 0x71f0f230b0dee26U, 0xef213f9ecfc32fbU,
  0x2080aed0a140df7U, 0x90afaf4ef1feefbU, 0xfbf5fcec03ebfcf4U, 0xea1616f2fc28fdffU,
  0x18f70b050cf6fe00U, 0xfc201821f707f200U, 0x406031e1336f31dU, 0x1014e600f424fa1cU,
  0x81c0f0307f82007U, 0x3f50204fd07ed08U, 0x6f30c0d070f04fdU, 0xfcedf2daedf302f3U,
  0xee100debe2e30fdcU, 0xfb12ef13fbccfcf4U, 0xeae814e51801e6e5U, 0xfe060d29ff01fcf9U,
  0xfbeaf4e205e9f2daU, 0xb0ee516f5100bf7U, 0xaf7f50ec81112fcU, 0xf60ffdf30d090104U,
  0xf4efdff9dfea04edU, 0xcef9f1f9e6f4f7f4U, 0x4ef0eee04e8fef9U, 0x1f20be22210d911U,
  0x1119f001e6112004U, 0xf2e62d0110ddf3d2U, 0xebea1f1b1122fb11U, 0x5170816e3ff2010U,
  0xeb1d10fa05eb1505U, 0x6def8fef0f9f7f2U, 0x2ebf2fc00db06e3U, 0xe30af40efbda0a05U,
  0xcf000efecfff1f3U, 0x40c1510fefe0402U, 0xe5e41707ebe2f0d8U, 0x1a11fcee090aeaf9U,
  0xfa0d0df60219f30bU, 0xef16f2e1fb03ecedU, 0x1a4d07ff12ffU, 0xfffff79800001702U,
  0x36ce00000f0cU, 0x2615fffffb46U, 0x6a5000003f7U, 0xfffff509000016f2U,
  0x281100001660U, 0xfffffa2a0000197dU, 0x1ad9fffff969U, 0xfffff2e400000c52U,
  0xfffffc9afffff73aU, 0xffffeb9800001737U, 0x1fd9e0af00000ce7U, 0x98df36e1a25702cbU,
  0x1b48fe1d81a64cddU, 0x25dfd1ea019d154bU, 0x38cf1922f60f3c15U, 0x1e25e1c3dadd1512U,
  0xf6eb0e3917e5dfc6U, 0x42cf1e29dcb4fddcU, 0xe3c5dd0f2237aeb6U, 0x3b2fbbfe1bf922d7U,
  0xb7a4c0bd0ced6fe9U, 0xc9cfe3a145d7a6bdU, 0x34e627c9eeb81e38U, 0xdf300d2513e92fccU,
  0xe32b382d1effd8f4U, 0xe7ee24efd6cfd40cU, 0xd2d621ee00ece5ecU, 0xeaeace20030032d8U,
  0x2434e4002de0f5d4U, 0xd021fb70bdc1315U, 0xaed4c8d50d25d74cU, 0x2e1e06dc24fd3ab9U,
  0xedbd1b14d9d713edU, 0x29e7e71e2bc023d8U, 0x48dfd5c7b24bbe02U, 0x48b941f5e4e14816U,
  0xf3ef3b3f3fd3372bU, 0x264c54a1f7283cffU, 0xa705d9e9bcdecff8U, 0xe1e5b441f4ad3d22U,
  0xf80af5f8663d4e62U, 0xd0d262c24e90d26U, 0x1b150b07220a19cfU, 0xe61911e32ad1d60fU,
  0xfa120112fee514feU, 0x8f31fde22271aecU, 0x5b4dcf1fc20U, 0x2e20000012cU,
  0xffffffc000000970U, 0x10000000445U, 0xfffffa450000027cU, 0xfffffcc9ffffff07U,
  0x3313b809ffffff46U, 0xdedf36cecb07e9bdU, 0x2e2f0bbccc3c1f22U, 0xfe1d08d607dc2dd8U,
  0x20eaf8dae3ffebffU, 0x2c3001fe14191bf6U, 0xd4b80f3afef61418U, 0x10bfb3a8bc30e4a9U,
  0x19e40726cd4c4a55U, 0x80eed045ffbc337U, 0x1b1efb02e90bf010U, 0x333001122ef7e613U,
  0xf3e81ded06021003U, 0xfdcdeed4f32206fdU, 0xd9fc2e38d106f905U, 0xedd1ebcdd7dfdbf0U,
  0xfaf7e9d8fc34d11dU, 0xd7f9e3e72024e903U, 0x7181217bb20d4U, 0x1e08121103f0fdf0U,
  0x1d2606111d18120aU, 0xee0821fbeaea071eU, 0xde210104f4ffd80cU, 0x1b160e052412ea24U,
  0xa8d2cdb5f2df1debU, 0x5cf0b381df1f0b16U, 0x30c35740f5dc1bc2U, 0x4f0fc0ee7dde7d0U,
  0x1b2101fcf61fe216U, 0x3423fff52cfb1df2U, 0xe70314210cdcfb07U, 0x171905ff01e40e19U,
  0xe3c13ef0907ecd8U, 0x6ef11cf41d1bf724U, 0x1e00dff50d0a0c27U, 0xf8d4c82c42d0becaU,
  0x1cfe40cdbe7U, 0xacfffffe73U, 0x34dfffffbf7U, 0xfffffb0c0000049fU,
  0x69ffffffe5cU, 0xfffffce2fffffc11U, 0xfafd020000009aU, 0xfb1100feff02fa07U,
  0x405fbfef7f40d09U, 0xfc0100fd0dff0504U, 0xa0b04fc0405f8f6U, 0xf2fcfafafafd04fcU,
  0x25e715fe010508fbU, 0x162139e9e9040f04U, 0xf02f70411fe0102U, 0xfd000700fffb0204U,
  0x30607fcfd04f509U, 0xf0ffd090d02fefcU, 0x15fb0b0002f90b02U, 0x41012f7041101fcU,
  0xfff1f109eb0001fdU, 0xfe0b00fa02f5f1fcU, 0x12f40507fffefa08U, 0xcfb10fef70308U,
  0xfa0900f4f8fcfbf8U, 0xc01020aefeff70eU, 0xbd1039e4ee1c40bcU, 0x15fbfefa1da9fae3U,
  0x7f406010409fefaU, 0xfef608fff8f70b0cU, 0xf903f9f5fd11fc0cU, 0xf2f8fdfb00ee0609U,
  0xfaf60d001006f8f9U, 0xf5f9eb160d061007U, 0xf3ec000ff4fd0d02U, 0x8f5fb13e9eff60bU,
  0xf20ffbf9f404ee13U, 0xf2f8f6eeeb0ffdf9U, 0xaee0a130d09f602U, 0xa82e4a24eff1f410U,
  0xf8bac117d25adcc8U, 0xf70b07f8f6fffdeeU, 0x502eff3f912030dU, 0x12090bfdf7f6f8eaU,
  0xebfefd08fdf215e8U, 0x8ee12f214ff08f2U, 0xfa000209050bf5f2U, 0x8fa00f3f400020eU,
  0xb0afafa010105f8U, 0xfc02fef6f9fffaf5U, 0x4f50e0b080df90eU, 0xfef602f701fcf90aU,
  0x80706fc000005f8U, 0xd20e2e0b0e082a1bU, 0x17f410012ff82ad8U, 0xb080bfd0a040b0eU,
  0xf4f9fef401f0fb06U, 0xf6f4faf6060604f7U, 0xf7fd010206f5090dU, 0x716f5fb13fa01faU,
  0xfc0e041108140707U, 0xf0cee04f2fc0bebU, 0x11f5fb090deceffdU, 0x1f8fe080d01f9U,
  0xf1f401ff0b09fdfdU, 0xec050ff50eeefc14U, 0xa750189e0209030aU, 0x4d67be9aad303cf7U,
  0xee030a0d000cfdf3U, 0x6f0f5f41713fd0fU, 0xf008060d191ffff3U, 0xf4f6040711f405e9U,
  0x4f8150304071705U, 0xf7f701fa0d15eaf8U, 0xf91208f31404ff07U, 0x3fcfb1001f911edU,
  0xf613fef8fe0810f9U, 0xa02f6f60a01f6f9U, 0xaf6f9fcf919fef5U, 0xff040ef8f815fbffU,
  0x401ede406d130f6U, 0xf2f21305d11732faU, 0xf80415f4fbf9fd00U, 0xf306fa0de9ef1113U,
  0xfaee00f408edf2fbU, 0x121015050df5f703U, 0xf0001003080a0ff2U, 0xfb0d08fdfbf4f6f8U,
  0xff0306f409f200f6U, 0xf80afa080107f6fcU, 0xfbfc07020c0e0dffU, 0xfa0302f70b0201faU,
  0xfe01fb0406f80f11U, 0xff2df40508f30df3U, 0xd84f31f1092e08d4U, 0xfcf70603080c00fcU,
  0x309fdfdf50c0a0dU, 0xfc0502fbf7f6ff06U, 0xfa12faff000412feU, 0x4f20708090bfc0cU,
  0xfc11fafc0101f4fdU, 0x3f80ff2fcf6fc00U, 0xf4f90afc04f3f206U, 0x10fb03060cf313fdU,
  0x1002f2f8f00a00f0U, 0x20d04f8f9f5020dU, 0xc1004f5edf40f04U, 0x81001a3211b6f9e5U,
  0xf80dfcf74a011e66U, 0x8f40c06f6ff08eeU, 0xaf2f7fcfb0ff103U, 0xf201f3f0fffcf109U,
  0xf603fffeff03f5f2U, 0x5f9f7fdeef5f70bU, 0xdf402f8f0f4fdf0U, 0xf707fdf8090afc0cU,
  0xc06f9faf3f407fdU, 0xf80cfaf408fc0701U, 0xef603fcfb0afdf9U, 0xcff05fa07000dffU,
  0x2244bf31050bfcf7U, 0xe81de430c2df0eedU, 0xf605fbfb04f80206U, 0xf0104040a060d0dU,
  0xf50102011309fffeU, 0x3020307fffa0200U, 0xf80601fb0cf60b0bU, 0xff09080e07080508U,
  0x8f30ffaf8fc1006U, 0xef0fffff0d0bfbf5U, 0xf9f20bfe02f908faU, 0xaff08fd06fe01f4U,
  0xfc090304f8fa03f6U, 0xfa01f7f9f60c0200U, 0xb029c6e9b7b81451U, 0xfb0d0df6001c100fU,
  0x8f106fe02050905U, 0xfefbf806ee08fdf4U, 0xf7f008fc0007faffU, 0x1f504040ef206f7U,
  0xf105f1f9f5fef90cU, 0x30af905faf90b07U, 0xf401040908f3f9U, 0xa0b02030c00faf7U,
  0xfc070c0113f70909U, 0xfa05f4fff7f4f8f5U, 0x6fa0400f8f80511U, 0xf9eff2f501fefd08U,
  0x5222efb2134f8e8U, 0xfa030c09f8fbfafeU, 0xb0a0a12fc03fcffU, 0xfbf008f8f904fa04U,
  0x1012f50502f60f06U, 0xf5fffff7f9001608U, 0x4010b0af6f9fdf6U, 0xf2f5effbeaf61719U,
  0xe4eef90debf6f7f4U, 0xfa07e7ea080cfa19U, 0xeef90eeaf80b1704U, 0x6effee3e606fc03U,
  0xeee0fefdf1e0fa1aU, 0xf02f40448d0c5ed5U, 0xe3f11bfb319a20ebU, 0xf00108e3fc0c12faU,
  0x1618f6f0e2fc02f6U, 0x10f5ed01070413e7U, 0xfb0c08ff07f5161bU, 0xf5fd18fbf31be2f2U,
  0xfffffc07f7070f17U, 0x5c00000046eU, 0xfffffefffffffc9dU, 0xfffffb7000000111U,
  0xfffffb9900000265U, 0xfffffb630000033eU, 0xe5eb28ce000003b9U, 0xccc0d63b36e40b12U,
  0x1affd1fae1ce3c17U, 0xeefde060c1200ceU, 0x19f122d8cefa01faU, 0x708f0eadde727b9U,
  0xbe53317f3ac3a56U, 0xba70f1cdecbf432U, 0xd819d5140a36f70fU, 0xce3a021f2904ebf7U,
  0x2cbafa1406c3c020U, 0x22d2ebcfe3f048ecU, 0x290ffbeaeb065df1U, 0xff250ed44331cb19U,
  0xf80034c2d91d05f8U, 0x18101e9bcd2e279dU, 0x1822223ecf21c835U, 0x4329f0eee3dcd8b2U,
  0xbc121fff33fcc5e4U, 0xc5965eeb66fdc152U, 0x63e140be06caf798U, 0xd3d7db210cb163b5U,
  0xc1d34d08d4e712adU, 0xb7c4203724e1102dU, 0xee6b812f4abcbfdU, 0x4dcc4cddf5c80259U,
  0x3f18a0c510c6c4d7U, 0x2860badfcd11fd06U, 0xcb1e0eb72ef7c8ccU, 0xfd0306b7b3f8deeeU,
  0xe7e9c3f15fe1d3b3U, 0xe00836c9389927e9U, 0x1acf1be82e4e21d6U, 0xc0e621c921051002U,
  0x44a8e9e04abe29e8U, 0x252ba924a5c7f790U, 0xe3bd083a2ae244c5U, 0xffe0accae6f4f0dcU,
  0xd6360841e1f00db8U, 0xe3b617accefda65fU, 0x3a23dc384c3f4527U, 0x2f220d19e8d9061dU,
  0xfcdf0121f8ee21f6U, 0x161be8090a151836U, 0x16f7081d10fc2302U, 0xdffef5eef6f4ee0aU,
  0xd8321725fc1e0af6U, 0x253f290c3fe7ef12U, 0xf621f9060e2114f8U, 0xde1711fbfd20011cU,
  0xf6f4211a0201160eU, 0x100ced0b00072bf8U, 0xff42f01520380af7U, 0xdb3727ed15de030aU,
  0xbebdaee0c25e613U, 0x1ed9f612fc0f19e8U, 0x252af9da1011d648U, 0x20614dc0442f53bU,
  0x17c4fe14dde5c646U, 0x2edc202c220fd709U, 0x31e72b10fe16f0e2U, 0xd3e3d1c1b102cfcU,
  0x8ebfb24f036e1beU, 0x381507203524083fU, 0x110ed6fbdbc22110U, 0xfe61fbf8e1d42cf5U,
  0x8e2410830243efcU, 0x18f2264f12163901U, 0x235107a6fdb699f1U, 0x2a1f1710e0dbb2d8U,
  0xa3b7f42909c2de0dU, 0x1bc6a7409f42cef9U, 0xdb0b28e54028c6adU, 0x31e9ede7ea564e50U,
  0xb6a713e6c8ecf8caU, 0xe7ed2b1d3c0ba7ceU, 0x6e002cbb1b8c1f4U, 0xd5d0b139fced07a2U,
  0xb5c7de37efb734e1U, 0xf327241a9c1bc34dU, 0xd6ca9af5b0e2e217U, 0x6f9ffd5a8a4bcc7U,
  0xd304c7c2ebec2eU, 0xb613c40ee4e4cab9U, 0xd925f30337b409faU, 0x101e1af6ed0fd003U,
  0x2f09e5f517dd0ab5U, 0xcbc5cc0a14e610fdU, 0x21daf4bd2813f6deU, 0x42c500d2f93b09cfU,
